<pad>	0
<unk>	0
<s>	0
</s>	0
智能	-0
技术	-1
人工	-2
航天	-3
人工智能	-4
航空	-5
可以	-6
航空航天	-7
系统	-8
通过	-9
数据	-10
发展	-11
安全	-12
飞行	-13
提高	-14
可能	-15
进行	-16
领域	-17
学习	-18
应用	-19
影响	-20
提供	-21
需要	-22
问题	-23
如何	-24
使用	-25
设计	-26
这些	-27
汽车	-28
方面	-29
环境	-30
重要	-31
中的	-32
能力	-33
能够	-34
确保	-35
包括	-36
飞机	-37
帮助	-38
的发展	-39
分析	-40
效率	-41
研究	-42
例如	-43
中国	-44
自动	-45
哪些	-46
处理	-47
机器	-48
▁在	-49
AI	-50
减少	-51
实现	-52
我们	-53
材料	-54
过程	-55
驾驶	-56
此外	-57
模型	-58
性能	-59
太空	-60
创新	-61
科学	-62
一些	-63
以及	-64
人工智能在	-65
控制	-66
▁1	-67
任务	-68
未来	-69
决策	-70
▁2	-71
管理	-72
领域的	-73
主要	-74
制造	-75
卫星	-76
预测	-77
识别	-78
一个	-79
提升	-80
以下	-81
3.	-82
信息	-83
算法	-84
性和	-85
▁2.	-86
首先	-87
▁1.	-88
市场	-89
▁3.	-90
挑战	-91
4.	-92
技术的	-93
工作	-94
▁4.	-95
无人	-96
优化	-97
利用	-98
行业	-99
用于	-100
设备	-101
公司	-102
保护	-103
从而	-104
推动	-105
理解	-106
同时	-107
风险	-108
人工智能可以	-109
其次	-110
服务	-111
人类	-112
可能会	-113
的影响	-114
解决	-115
准确	-116
的安全	-117
需求	-118
全球	-119
产生	-120
教育	-121
质量	-122
国际	-123
训练	-124
作用	-125
深度	-126
探索	-127
大量	-128
空间	-129
工程	-130
什么	-131
生产	-132
科技	-133
器的	-134
新的	-135
对于	-136
企业	-137
5.	-138
合作	-139
法律	-140
产业	-141
能源	-142
关键	-143
有哪些	-144
人工智能的	-145
▁5.	-146
开发	-147
航空航天技术	-148
情况	-149
他们	-150
用户	-151
网络	-152
复杂	-153
系统的	-154
有效	-155
方法	-156
评估	-157
军事	-158
方式	-159
成本	-160
资源	-161
伦理	-162
机器学习	-163
具有	-164
政策	-165
20	-166
导航	-167
计算	-168
更加	-169
导弹	-170
无人机	-171
具体	-172
重要的	-173
经济	-174
目标	-175
通信	-176
研发	-177
▁请	-178
考虑	-179
措施	-180
深度学习	-181
环保	-182
时间	-183
支持	-184
降低	-185
根据	-186
相关	-187
持续	-188
交通	-189
国家	-190
动机	-191
使得	-192
项目	-193
不同	-194
选择	-195
来说	-196
发动机	-197
结构	-198
隐私	-199
可以通过	-200
过程中	-201
产品	-202
以下几	-203
医疗	-204
发射	-205
语言	-206
自动驾驶	-207
化的	-208
更好	-209
其他	-210
火箭	-211
随着	-212
改进	-213
因此	-214
人工智能技术	-215
美国	-216
趋势	-217
学生	-218
不断	-219
社会	-220
度和	-221
这种	-222
法规	-223
动力	-224
制定	-225
▁人工智能在	-226
人员	-227
模式	-228
最后	-229
车辆	-230
大量的	-231
知识	-232
广泛	-233
燃料	-234
可以帮助	-235
▁航空航天	-236
提供了	-237
维护	-238
导致	-239
计划	-240
行为	-241
测试	-242
图像	-243
采用	-244
稳定	-245
了解	-246
飞机的	-247
应对	-248
成功	-249
工业	-250
更多	-251
许多	-252
策略	-253
机器人	-254
金融	-255
自然	-256
非常	-257
先进	-258
变化	-259
总的	-260
总的来说	-261
大的	-262
作战	-263
进步	-264
语音	-265
操作	-266
是在	-267
标准	-268
探测	-269
带来	-270
上的	-271
优势	-272
快速	-273
增强	-274
适应	-275
调整	-276
特别	-277
个性	-278
设计和	-279
保持	-280
解释	-281
高效	-282
监测	-283
要求	-284
地球	-285
促进	-286
竞争	-287
以确保	-288
各种	-289
增加	-290
▁人工智能	-291
自动化	-292
采取	-293
更好地	-294
方面的	-295
可靠	-296
有何	-297
一下	-298
是一个	-299
游戏	-300
飞行器	-301
排放	-302
00	-303
飞行员	-304
成为	-305
运行	-306
实时	-307
不仅	-308
战斗	-309
如果	-310
因素	-311
突破	-312
显著	-313
艺术	-314
精确	-315
一种	-316
模拟	-317
以下几个	-318
基础	-319
效率和	-320
建立	-321
体验	-322
活动	-323
商业	-324
实验	-325
速度	-326
空中	-327
提高了	-328
收集	-329
现代	-330
它们	-331
健康	-332
雷达	-333
中的应用	-334
方案	-335
还可以	-336
是什么	-337
这一	-338
航天器	-339
道德	-340
执行	-341
机构	-342
个人	-343
功能	-344
安全性	-345
电子	-346
的技术	-347
培训	-348
历史	-349
条件	-350
做出	-351
数据分析	-352
作为	-353
发现	-354
专业	-355
神经	-356
战略	-357
避免	-358
电动	-359
汽车的	-360
宇宙	-361
生成	-362
传统	-363
自然语言	-364
以上	-365
的问题	-366
自主	-367
平台	-368
改变	-369
建设	-370
月球	-371
正在	-372
的数据	-373
实际	-374
存在	-375
事故	-376
未来的	-377
检测	-378
是否	-379
到了	-380
可持续	-381
客户	-382
故障	-383
角色	-384
出现	-385
**	-386
推进	-387
水平	-388
计算机	-389
投资	-390
生活	-391
体现	-392
涉及	-393
的应用	-394
建议	-395
通常	-396
火星	-397
神经网络	-398
的重要	-399
一步	-400
面临	-401
团队	-402
先进的	-403
之间	-404
方向	-405
自然语言处理	-406
空间站	-407
19	-408
▁中国	-409
武器	-410
是一些	-411
定位	-412
航空公司	-413
效果	-414
燃油	-415
加强	-416
规划	-417
理解和	-418
潜在	-419
战斗机	-420
特征	-421
宇航	-422
以下几个方面	-423
飞行器的	-424
技能	-425
工具	-426
为了	-427
机会	-428
部分	-429
规定	-430
具备	-431
伦理问题	-432
科研	-433
供应	-434
污染	-435
多个	-436
助于	-437
有助于	-438
防御	-439
关注	-440
攻击	-441
人才	-442
取得	-443
进一步	-444
打击	-445
阶段	-446
更多的	-447
运输	-448
应该	-449
就业	-450
责任	-451
对环境	-452
发生	-453
发挥	-454
特别是在	-455
诊断	-456
重大	-457
学习和	-458
实施	-459
关于	-460
运营	-461
完成	-462
航空航天工程	-463
人工智能可以通过	-464
技术和	-465
满足	-466
消费	-467
航空航天领域	-468
精度	-469
这个	-470
场景	-471
电池	-472
这是	-473
-1	-474
结果	-475
表现	-476
装备	-477
领域的应用	-478
范围	-479
太阳	-480
新能源	-481
检查	-482
可靠性	-483
地面	-484
因为	-485
宇航员	-486
相比	-487
数据的	-488
监控	-489
世界	-490
体系	-491
地区	-492
和技术	-493
保障	-494
定期	-495
复杂的	-496
6.	-497
消耗	-498
或者	-499
严格	-500
情况下	-501
参与	-502
技术的发展	-503
性能和	-504
空气	-505
部件	-506
学生的	-507
的工作	-508
语音识别	-509
及时	-510
推动了	-511
其在	-512
多种	-513
威胁	-514
限制	-515
防止	-516
天气	-517
航天员	-518
▁以上	-519
理论	-520
传感	-521
智能化	-522
结合	-523
个性化	-524
航母	-525
气候	-526
深入	-527
系列	-528
in	-529
已经	-530
以下是一些	-531
▁6.	-532
虚拟	-533
推荐	-534
提供更	-535
可以用于	-536
行业的	-537
状态	-538
性的	-539
用户的	-540
政府	-541
轨道	-542
积极	-543
培养	-544
产生了	-545
能力和	-546
实践	-547
意义	-548
原理	-549
模型的	-550
平衡	-551
教学	-552
创造	-553
深远	-554
紧急	-555
经验	-556
依赖	-557
基于	-558
关系	-559
▁"	-560
然而	-561
验证	-562
形成	-563
增长	-564
确定	-565
力和	-566
规模	-567
传感器	-568
创作	-569
可以提高	-570
高的	-571
内容	-572
至关	-573
透明	-574
准确性	-575
位置	-576
人们	-577
比如	-578
er	-579
直接	-580
的风险	-581
案例	-582
全面	-583
空军	-584
材料的	-585
公平	-586
认为	-587
的决策	-588
大大	-589
共同	-590
相关的	-591
生命	-592
个性化的	-593
保证	-594
航天器的	-595
on	-596
常见	-597
可以在	-598
消费者	-599
贡献	-600
现实	-601
▁如何	-602
和应用	-603
其中	-604
进展	-605
机制	-606
之间的	-607
科学家	-608
我国	-609
的需求	-610
音速	-611
是如何	-612
的飞行	-613
遵守	-614
大气	-615
获取	-616
造成	-617
飞船	-618
错误	-619
人工智能的发展	-620
信号	-621
太空探索	-622
设施	-623
航空航天领域的	-624
距离	-625
总之	-626
人工智能系统	-627
展示	-628
价值	-629
维修	-630
由于	-631
尤其	-632
重量	-633
了哪些	-634
所有	-635
达到	-636
开始	-637
好的	-638
也是	-639
视觉	-640
拍摄	-641
生物	-642
导航系统	-643
详细	-644
罗斯	-645
控制系统	-646
核心	-647
体现在	-648
引发	-649
设备的	-650
城市	-651
航空航天科学	-652
流程	-653
航空航天技术在	-654
▁这些	-655
乘客	-656
特定	-657
俄罗斯	-658
长期	-659
符合	-660
识别和	-661
事件	-662
应用于	-663
新型	-664
行动	-665
联网	-666
获得	-667
高度	-668
解决方案	-669
涉及到	-670
医生	-671
旅行	-672
改善	-673
构建	-674
噪音	-675
碳排放	-676
这将	-677
▁总的来说	-678
机的	-679
相应	-680
基本	-681
作品	-682
提出	-683
升级	-684
我们可以	-685
侦察	-686
航空器	-687
目前	-688
远程	-689
步骤	-690
能够在	-691
精准	-692
下的	-693
感知	-694
的研究	-695
载人	-696
必须	-697
自己	-698
之一	-699
▁当	-700
我们的	-701
航空航天技术的	-702
无人驾驶	-703
观测	-704
和分析	-705
加速	-706
软件	-707
超音速	-708
海军	-709
以提高	-710
技术在	-711
辅助	-712
受到	-713
成果	-714
潜艇	-715
组织	-716
等方面	-717
数据和	-718
▁请解释	-719
创新和	-720
的关键	-721
有着	-722
特点	-723
监管	-724
标志	-725
复合	-726
品牌	-727
不同的	-728
有效地	-729
北斗	-730
强化	-731
进入	-732
交互	-733
的能力	-734
需要考虑	-735
提升了	-736
治疗	-737
取得了	-738
的主要	-739
中心	-740
路径	-741
综合	-742
战争	-743
航空航天工业	-744
分类	-745
有所	-746
行星	-747
灵活	-748
希望	-749
以便	-750
他们的	-751
工程师	-752
疾病	-753
GP	-754
数字	-755
部署	-756
or	-757
竞争力	-758
实现了	-759
更准确	-760
在太空	-761
职业	-762
面对	-763
没有	-764
和安全	-765
公众	-766
航空航天行业	-767
en	-768
区域	-769
参数	-770
共享	-771
预警	-772
物理	-773
文本	-774
AS	-775
融合	-776
注意	-777
▁-	-778
人类的	-779
有许多	-780
敌方	-781
有效的	-782
专家	-783
整体	-784
新能源汽车	-785
航空航天产业	-786
类型	-787
交流	-788
强度	-789
程序	-790
▁**	-791
如何影响	-792
无法	-793
-2	-794
制造业	-795
有很	-796
▁数据	-797
通过分析	-798
是一种	-799
第一	-800
程度	-801
介绍	-802
高效的	-803
供应链	-804
环境中	-805
的挑战	-806
安全和	-807
课程	-808
协同	-809
试验	-810
交易	-811
反应	-812
干扰	-813
▁其次	-814
这样	-815
机场	-816
情感	-817
明确	-818
**:	-819
和数据	-820
可持续发展	-821
高速	-822
):	-823
特殊	-824
通过使用	-825
得到	-826
国防	-827
的安全性	-828
反馈	-829
首次	-830
和优化	-831
患者	-832
相应的	-833
重要作用	-834
正常	-835
地位	-836
an	-837
规范	-838
针对	-839
防空	-840
可能的	-841
投入	-842
传输	-843
能否	-844
更新	-845
-3	-846
学生的学习	-847
使其	-848
都是	-849
有何影响	-850
例子	-851
市场的	-852
就是	-853
从而提高	-854
机器学习算法	-855
兴趣	-856
高温	-857
极大	-858
预防	-859
强大的	-860
可能导致	-861
at	-862
ce	-863
生态	-864
中国在	-865
主要体现在	-866
意味	-867
人工智能还可以	-868
员工	-869
最新	-870
遥感	-871
意味着	-872
独特	-873
辐射	-874
也在	-875
适的	-876
表面	-877
这包括	-878
指导	-879
适合	-880
描述	-881
稳定性	-882
复合材料	-883
隐身	-884
人工智能可以帮助	-885
极端	-886
主要包括	-887
的信息	-888
机动	-889
化和	-890
意识	-891
等领域	-892
进行了	-893
农业	-894
销售	-895
一定	-896
电动汽车	-897
状况	-898
集成	-899
和预测	-900
温度	-901
研制	-902
一系列	-903
严格的	-904
战场	-905
和创新	-906
航班	-907
医学	-908
物流	-909
人工智能还	-910
家居	-911
最大	-912
▁智能	-913
压力	-914
扮演	-915
我们需要	-916
促进了	-917
民航	-918
以减少	-919
摄影	-920
制造商	-921
带来了	-922
任何	-923
设计和制造	-924
旨在	-925
系统和	-926
里程	-927
充电	-928
和使用	-929
的方法	-930
响应	-931
和政策	-932
▁你	-933
激光	-934
过程中的	-935
战术	-936
最新的	-937
▁总之	-938
视频	-939
在人工智能	-940
航空航天技术的发展	-941
必要	-942
人的	-943
翻译	-944
每个	-945
良好的	-946
运动	-947
动态	-948
同时也	-949
然后	-950
车辆的	-951
提供个性化的	-952
采用了	-953
气象	-954
▁此外	-955
力量	-956
旅游	-957
鼓励	-958
覆盖	-959
规则	-960
减轻	-961
文化	-962
标志着	-963
回收	-964
预测和	-965
至关重要	-966
拥有	-967
动力学	-968
重复	-969
发展的	-970
救援	-971
偏见	-972
合金	-973
教师	-974
ar	-975
心理	-976
研究和	-977
指挥	-978
潜力	-979
组成	-980
道德和	-981
隐私保护	-982
道路	-983
掌握	-984
特性	-985
重力	-986
任务的	-987
可能性	-988
最佳	-989
机械	-990
直升	-991
记录	-992
和机器学习	-993
几个	-994
合理	-995
自动驾驶汽车	-996
对环境的影响	-997
着陆	-998
一代	-999
迅速	-1000
多样	-1001
修复	-1002
飞机和	-1003
环境保护	-1004
内的	-1005
丰富	-1006
会对	-1007
助手	-1008
大数据	-1009
特别是	-1010
业务	-1011
的安全性和	-1012
和维护	-1013
大规模	-1014
另外	-1015
重要的作用	-1016
和其他	-1017
虚拟现实	-1018
自己的	-1019
可以提供	-1020
le	-1021
国际合作	-1022
有什么	-1023
跟踪	-1024
引入	-1025
概念	-1026
内部	-1027
的设计	-1028
速度和	-1029
工艺	-1030
气候变化	-1031
克服	-1032
玩家	-1033
各个	-1034
真实	-1035
合适的	-1036
负责	-1037
任务中	-1038
201	-1039
适当	-1040
提前	-1041
常见的	-1042
准备	-1043
在于	-1044
质量和	-1045
人工智能技术的	-1046
展现	-1047
完善	-1048
应急	-1049
数量	-1050
的高	-1051
更好的	-1052
对抗	-1053
超过	-1054
▁当然	-1055
吸引	-1056
背景	-1057
提取	-1058
▁请解释一下	-1059
空中交通	-1060
接受	-1061
准确性和	-1062
来越	-1063
甚至	-1064
越来越	-1065
有很多	-1066
输入	-1067
行驶	-1068
导航和	-1069
监督	-1070
导弹的	-1071
极大地	-1072
用的	-1073
布局	-1074
国内	-1075
资源的	-1076
返回	-1077
国家的	-1078
减少了	-1079
充分	-1080
情报	-1081
探测器	-1082
时的	-1083
运载	-1084
来提高	-1085
体的	-1086
电磁	-1087
问题的	-1088
轰炸	-1089
原因	-1090
前景	-1091
欧洲	-1092
这可能	-1093
一号	-1094
如何在	-1095
10	-1096
努力	-1097
原则	-1098
遇到	-1099
灾害	-1100
可以减少	-1101
的地	-1102
物的	-1103
期间	-1104
沟通	-1105
手段	-1106
除了	-1107
维护和	-1108
公正	-1109
卫星的	-1110
舒适	-1111
巨大的	-1112
美国的	-1113
资金	-1114
注重	-1115
飞行安全	-1116
燃烧	-1117
如何帮助	-1118
管理和	-1119
可以根据	-1120
还需要	-1121
强化学习	-1122
法律法规	-1123
效益	-1124
考虑到	-1125
这对于	-1126
分布	-1127
氧化	-1128
智能家居	-1129
刹车	-1130
科技的	-1131
正确	-1132
测量	-1133
音乐	-1134
需要大量的	-1135
图像识别	-1136
的效率和	-1137
作战能力	-1138
燃油效率	-1139
防护	-1140
精确的	-1141
民用	-1142
公司的	-1143
分析和	-1144
虽然	-1145
连接	-1146
NAS	-1147
拦截	-1148
驱动	-1149
▁当然可以	-1150
再次	-1151
大型	-1152
介绍一下	-1153
的环境	-1154
引擎	-1155
降低了	-1156
也可能	-1157
设计与	-1158
的情况下	-1159
人工智能算法	-1160
报告	-1161
起飞	-1162
讨论	-1163
GPS	-1164
差异	-1165
教育和	-1166
),	-1167
有所帮助	-1168
世纪	-1169
精神	-1170
直升机	-1171
可能会导致	-1172
某些	-1173
芯片	-1174
推力	-1175
50	-1176
al	-1177
数据进行	-1178
生产效率	-1179
大学	-1180
潜在的	-1181
变得	-1182
▁能否	-1183
分配	-1184
寻找	-1185
可以使用	-1186
物质	-1187
飞机在	-1188
卫星通信	-1189
异常	-1190
材料和	-1191
搜索	-1192
具体的	-1193
海洋	-1194
并且	-1195
能量	-1196
伦理和	-1197
严重	-1198
条件下	-1199
购买	-1200
-20	-1201
生存	-1202
高精度	-1203
传统的	-1204
环境的	-1205
当前	-1206
建造	-1207
效能	-1208
寿命	-1209
被用于	-1210
决策过程	-1211
科学研究	-1212
计算机视觉	-1213
ace	-1214
再生	-1215
新一代	-1216
尤其是在	-1217
有限	-1218
是一	-1219
基地	-1220
▁A	-1221
长时间	-1222
系统在	-1223
更准确地	-1224
艺术作品	-1225
起到了	-1226
广泛应用	-1227
展示了	-1228
便利	-1229
您的	-1230
难以	-1231
使用的	-1232
中发挥	-1233
框架	-1234
发动机的	-1235
判断	-1236
里程碑	-1237
舰载	-1238
措施来	-1239
NASA	-1240
的一	-1241
和管理	-1242
泄露	-1243
节能	-1244
▁通过	-1245
产生了深远	-1246
集团	-1247
智慧	-1248
的行为	-1249
▁以上就是	-1250
增强了	-1251
确保了	-1252
找到	-1253
通用	-1254
替代	-1255
环保的	-1256
驾驶员	-1257
日常	-1258
欺诈	-1259
适当的	-1260
神舟	-1261
产生的	-1262
也是一个	-1263
▁最后	-1264
价格	-1265
大数据分析	-1266
法律问题	-1267
业的	-1268
周围	-1269
▁人工智能的	-1270
碰撞	-1271
运用	-1272
力学	-1273
▁S	-1274
足够	-1275
以适应	-1276
重要意义	-1277
必要的	-1278
这些技术	-1279
风险管理	-1280
在线	-1281
载荷	-1282
遵循	-1283
整个	-1284
航线	-1285
时代	-1286
202	-1287
这些数据	-1288
转型	-1289
指标	-1290
照片	-1291
未来发展	-1292
的基础	-1293
更高的	-1294
存储	-1295
11	-1296
宇宙的	-1297
样本	-1298
技术创新	-1299
也会	-1300
损失	-1301
环境下	-1302
中国的	-1303
金融机构	-1304
自我	-1305
就业机会	-1306
如何确保	-1307
▁使用	-1308
负面	-1309
公里	-1310
还有	-1311
开展	-1312
轻量	-1313
起降	-1314
机器学习和	-1315
▁C	-1316
日本	-1317
自身	-1318
更高	-1319
中扮演	-1320
可能需要	-1321
不可	-1322
模式和	-1323
▁在航空航天	-1324
等技术	-1325
的时间	-1326
制作	-1327
垃圾	-1328
以下几种	-1329
互联网	-1330
管制	-1331
尤其是	-1332
完全	-1333
稳定性和	-1334
继续	-1335
转化	-1336
产生影响	-1337
可以实现	-1338
等方面的	-1339
路线	-1340
制导	-1341
人力	-1342
可能会对	-1343
印度	-1344
技巧	-1345
捕捉	-1346
最终	-1347
娱乐	-1348
普及	-1349
现有	-1350
车型	-1351
定制	-1352
调查	-1353
的方式	-1354
主要体现在以下几个方面	-1355
”,	-1356
难题	-1357
非常重要的	-1358
▁19	-1359
ti	-1360
部门	-1361
年代	-1362
困难	-1363
苏联	-1364
领先	-1365
样的	-1366
创建	-1367
在设计	-1368
能力的	-1369
技术的进步	-1370
分享	-1371
一方面	-1372
气体	-1373
混合	-1374
大气层	-1375
产业的	-1376
更换	-1377
数据集	-1378
太阳能	-1379
安全的	-1380
材料科学	-1381
NN	-1382
航天技术	-1383
的使用	-1384
决定	-1385
限于	-1386
与其他	-1387
中的作用	-1388
等多个	-1389
实战	-1390
各国	-1391
周期	-1392
循环	-1393
深度学习和	-1394
而言	-1395
7.	-1396
来实现	-1397
以下几点	-1398
项目的	-1399
显示	-1400
关键技术	-1401
深空	-1402
的发展趋势	-1403
人为	-1404
30	-1405
您可以	-1406
知识和	-1407
尽管	-1408
火箭的	-1409
航空航天科技	-1410
环境和	-1411
可以帮助我们	-1412
零部件	-1413
改变了	-1414
产业链	-1415
角度	-1416
基础设施	-1417
利益	-1418
和挑战	-1419
后续	-1420
对全球	-1421
紧急情况	-1422
ing	-1423
开放	-1424
培训和	-1425
和处理	-1426
质量控制	-1427
确实	-1428
配备	-1429
更好地理解	-1430
出了	-1431
满意	-1432
得到了	-1433
便捷	-1434
可持续性	-1435
更好地理解和	-1436
设备和	-1437
机遇	-1438
▁汽车	-1439
非常广泛	-1440
往往	-1441
实际应用	-1442
人工智能技术在	-1443
巡航	-1444
战机	-1445
药物	-1446
产品的	-1447
负面影响	-1448
反映	-1449
空间站的	-1450
敏感	-1451
硬件	-1452
联合	-1453
企业的	-1454
部队	-1455
准确的	-1456
学科	-1457
影像	-1458
降落	-1459
风险评估	-1460
习惯	-1461
以实现	-1462
自动驾驶技术	-1463
pace	-1464
et	-1465
不断发展	-1466
长征	-1467
接收	-1468
相对	-1469
身体	-1470
再者	-1471
个人隐私	-1472
到的	-1473
的效率	-1474
绿色	-1475
说明	-1476
训练和	-1477
艺术家	-1478
全球范围	-1479
细节	-1480
营销	-1481
和服务	-1482
航空器的	-1483
可再生	-1484
移动	-1485
起着	-1486
缩短	-1487
的同时	-1488
出行	-1489
的是	-1490
▁首先	-1491
下降	-1492
设计的	-1493
化学	-1494
协调	-1495
取代	-1496
节省	-1497
强调	-1498
利用人工智能技术	-1499
对话	-1500
作为一	-1501
防御系统	-1502
思维	-1503
人工智能可以用于	-1504
中国航天	-1505
是指	-1506
客户服务	-1507
在航空航天	-1508
互动	-1509
预报	-1510
帮助我们	-1511
可解释	-1512
将会	-1513
对社会	-1514
人工智能系统的	-1515
体现了	-1516
在军事	-1517
推广	-1518
是多	-1519
st	-1520
后的	-1521
构成	-1522
和研究	-1523
巨大	-1524
非常重要	-1525
提出了	-1526
歧视	-1527
组合	-1528
金属	-1529
算法的	-1530
大幅	-1531
和智能	-1532
加工	-1533
电力	-1534
海上	-1535
载人航天	-1536
国产	-1537
为什么	-1538
和发展	-1539
oo	-1540
重点	-1541
表明	-1542
破坏	-1543
输出	-1544
安全问题	-1545
携带	-1546
在太空中	-1547
技术的应用	-1548
波音	-1549
两个	-1550
嫦娥	-1551
等问题	-1552
废弃	-1553
波罗	-1554
可以为	-1555
安装	-1556
▁M	-1557
预计	-1558
保险	-1559
姿态	-1560
更为	-1561
协作	-1562
气动	-1563
配置	-1564
)、	-1565
早期	-1566
腐蚀	-1567
可能出现	-1568
访问	-1569
产权	-1570
在飞行	-1571
算法和	-1572
透明度	-1573
环节	-1574
美军	-1575
100	-1576
航空摄影	-1577
滥用	-1578
的重要性	-1579
冲突	-1580
▁根据	-1581
lo	-1582
阻力	-1583
阿波罗	-1584
燃料消耗	-1585
逐渐	-1586
▁提高	-1587
的航空航天	-1588
推进系统	-1589
五号	-1590
独立	-1591
带来的	-1592
轰炸机	-1593
专门	-1594
决策的	-1595
高质量	-1596
实力	-1597
成就	-1598
观察	-1599
实验室	-1600
▁请描述	-1601
▁7.	-1602
但不	-1603
结构和	-1604
设计中	-1605
监视	-1606
它可以	-1607
表示	-1608
知识产权	-1609
公共	-1610
权益	-1611
之前	-1612
力于	-1613
快速发展	-1614
不足	-1615
需要进行	-1616
量子	-1617
安全性和	-1618
环境下的	-1619
不会	-1620
物联网	-1621
物体	-1622
领域中	-1623
岗位	-1624
经过	-1625
机组	-1626
标准和	-1627
致力于	-1628
这对	-1629
th	-1630
类似	-1631
人脸	-1632
对您	-1633
指令	-1634
都有	-1635
的目标	-1636
的新	-1637
-35	-1638
▁美国	-1639
以应对	-1640
数据中	-1641
是通过	-1642
的安全和	-1643
装置	-1644
更有效地	-1645
现象	-1646
挖掘	-1647
处理和	-1648
来进行	-1649
尝试	-1650
纤维	-1651
经历	-1652
顺利	-1653
▁请介绍一下	-1654
地区的	-1655
测试和	-1656
飞行员的	-1657
望远	-1658
望远镜	-1659
强度和	-1660
患者的	-1661
重视	-1662
三号	-1663
保养	-1664
搭载	-1665
re	-1666
重大突破	-1667
合规	-1668
控制和	-1669
审查	-1670
完整	-1671
模块	-1672
▁未来	-1673
在轨	-1674
ch	-1675
出口	-1676
广阔	-1677
准确地	-1678
侵犯	-1679
这意味着	-1680
那么	-1681
道德问题	-1682
系统等	-1683
扩大	-1684
设置	-1685
的材料	-1686
时间和	-1687
作业	-1688
60	-1689
弹道	-1690
小时	-1691
技术来	-1692
独特的	-1693
人工智能也	-1694
数据隐私	-1695
机身	-1696
车的	-1697
增加了	-1698
只是	-1699
成熟	-1700
显著的	-1701
轻量化	-1702
但不限于	-1703
如何通过	-1704
加密	-1705
重新	-1706
媒体	-1707
分辨	-1708
重大影响	-1709
射程	-1710
的汽车	-1711
▁是	-1712
这使得	-1713
太空旅行	-1714
对航空航天	-1715
障碍	-1716
处于	-1717
并在	-1718
关键的	-1719
法律和	-1720
危险	-1721
这不仅	-1722
森林	-1723
CA	-1724
清晰	-1725
飞行的	-1726
形式	-1727
将更加	-1728
恶劣	-1729
无人机的	-1730
推理	-1731
以满足	-1732
▁您	-1733
摄像	-1734
这些挑战	-1735
使用人工智能	-1736
监测和	-1737
战斗机的	-1738
事业	-1739
并提供	-1740
▁为了	-1741
参考	-1742
的人工智能	-1743
动作	-1744
正常运行	-1745
足够的	-1746
更高效的	-1747
广泛的应用	-1748
航天探索	-1749
分析大量的	-1750
整合	-1751
另一个	-1752
激发	-1753
登月	-1754
▁是的	-1755
新技术	-1756
垂直	-1757
地球的	-1758
数字化	-1759
通过对	-1760
噪声	-1761
清洁	-1762
还能	-1763
人员的	-1764
系统中	-1765
▁有哪些	-1766
制动	-1767
▁对于	-1768
具有重要意义	-1769
可靠性和	-1770
不断进步	-1771
依据	-1772
才能	-1773
无线	-1774
更先进的	-1775
人工智能还可以用于	-1776
▁航空	-1777
恢复	-1778
200	-1779
它在	-1780
也需要	-1781
国家和	-1782
轮胎	-1783
适应性	-1784
paceX	-1785
喷气	-1786
引导	-1787
这些问题	-1788
可再生能源	-1789
神舟十	-1790
24	-1791
分辨率	-1792
能源消耗	-1793
加快	-1794
更快	-1795
人机	-1796
带动	-1797
浪费	-1798
打印	-1799
电子战	-1800
即使	-1801
语义	-1802
类型的	-1803
仍然	-1804
军队	-1805
第三	-1806
及时发现	-1807
环保和	-1808
适用于	-1809
高强度	-1810
艺术创作	-1811
偏好	-1812
对人类	-1813
开发者	-1814
ro	-1815
风格	-1816
研发和	-1817
市场趋势	-1818
集中	-1819
频率	-1820
用户体验	-1821
包括但不限于	-1822
高超音速	-1823
,"	-1824
选择合适的	-1825
和控制	-1826
连续	-1827
转换	-1828
空气动力学	-1829
发布	-1830
将如何	-1831
红外	-1832
运载火箭	-1833
架构	-1834
年来	-1835
等方式	-1836
函数	-1837
社交	-1838
▁深度学习	-1839
人工智能能够	-1840
对接	-1841
度的	-1842
降低成本	-1843
教育和培训	-1844
和决策	-1845
的发生	-1846
全面的	-1847
变化的	-1848
和飞行	-1849
在航空航天领域	-1850
也为	-1851
天文	-1852
有几个	-1853
系统可以	-1854
零件	-1855
燃料效率	-1856
私人	-1857
采取了	-1858
▁在航空航天领域	-1859
▁人工智能对	-1860
ri	-1861
坦克	-1862
型号	-1863
形状	-1864
值得	-1865
缺乏	-1866
el	-1867
涵盖	-1868
认知	-1869
的基本	-1870
相互	-1871
政策和	-1872
咨询	-1873
联系	-1874
机器翻译	-1875
良好	-1876
也能	-1877
也有	-1878
和卫星	-1879
怎样的	-1880
续航	-1881
满意度	-1882
80	-1883
者的	-1884
和改进	-1885
挑战和	-1886
二氧化	-1887
▁20	-1888
重要性	-1889
加剧	-1890
评价	-1891
进程	-1892
所述	-1893
支撑	-1894
被广泛	-1895
贸易	-1896
核潜艇	-1897
设计师	-1898
扩展	-1899
高级	-1900
动力系统	-1901
综上	-1902
噪音污染	-1903
年的	-1904
对您有所帮助	-1905
-5	-1906
需要在	-1907
人工智能还可以通过	-1908
对其	-1909
的准确性	-1910
的航空	-1911
还是	-1912
在未来	-1913
承担	-1914
出色	-1915
技能和	-1916
认证	-1917
是非常重要的	-1918
编程	-1919
关键作用	-1920
管理系统	-1921
航空航天材料	-1922
▁AI	-1923
个人信息	-1924
显著提升	-1925
检测和	-1926
产品质量	-1927
市场需求	-1928
更大的	-1929
电动汽车的	-1930
竞赛	-1931
从而减少	-1932
包含	-1933
大大提高了	-1934
还可以用于	-1935
难度	-1936
分别	-1937
研究人员	-1938
综上所述	-1939
和环境	-1940
并进行	-1941
可能存在	-1942
前沿	-1943
数学	-1944
用来	-1945
的人	-1946
货物	-1947
依赖于	-1948
舰艇	-1949
逐步	-1950
这是一个	-1951
代表	-1952
供应商	-1953
有望	-1954
奠定	-1955
-4	-1956
允许	-1957
精度和	-1958
帮助企业	-1959
接近	-1960
还会	-1961
的性能	-1962
日常生活	-1963
产业的发展	-1964
人工智能技术的发展	-1965
近年来	-1966
宇航员的	-1967
简单	-1968
世界上	-1969
一个重要	-1970
法律和政策	-1971
信任	-1972
的可能性	-1973
隐形	-1974
的准确性和	-1975
▁希望	-1976
二号	-1977
航空业	-1978
强的	-1979
登陆	-1980
▁航空航天技术在	-1981
机翼	-1982
航空工业	-1983
传播	-1984
一定的	-1985
收集和分析	-1986
大量数据	-1987
灵活性	-1988
人工智能和	-1989
15	-1990
小型	-1991
科普	-1992
摄像头	-1993
确保其	-1994
▁T	-1995
新兴	-1996
定位系统	-1997
武器系统	-1998
航空运输	-1999
力的	-2000
追踪	-2001
使用了	-2002
无需	-2003
预期	-2004
也将	-2005
ion	-2006
专注	-2007
游戏的	-2008
的一些	-2009
诊断和	-2010
来源	-2011
补贴	-2012
准则	-2013
人工智能在医疗	-2014
定义	-2015
的合作	-2016
的具体	-2017
可解释性	-2018
回答	-2019
成为了	-2020
军用	-2021
SpaceX	-2022
70	-2023
人们的	-2024
格局	-2025
丰富的	-2026
理念	-2027
通讯	-2028
面临着	-2029
人工智能在金融	-2030
哪些方面	-2031
紧急情况下	-2032
多种方式	-2033
可能对	-2034
就业市场	-2035
的创新	-2036
的变化	-2037
促使	-2038
碳纤维	-2039
▁请问	-2040
转化为	-2041
特斯	-2042
图像和	-2043
一次	-2044
转向	-2045
更高效	-2046
隐私权	-2047
",	-2048
客服	-2049
尺寸	-2050
目的	-2051
▁航天	-2052
实验舱	-2053
承受	-2054
按照	-2055
用性	-2056
的飞机	-2057
微重力	-2058
重要影响	-2059
有关	-2060
商业航天	-2061
航空航天法规	-2062
卷积	-2063
多项	-2064
也可以	-2065
透明度和	-2066
外部	-2067
认识	-2068
生产线	-2069
密切	-2070
家庭	-2071
▁L	-2072
特斯拉	-2073
决策支持	-2074
解决问题	-2075
操控	-2076
积累	-2077
人才培养	-2078
12	-2079
人工智能的应用	-2080
国的	-2081
领域的发展	-2082
深度学习算法	-2083
NL	-2084
行人	-2085
中国空军	-2086
设定	-2087
起源	-2088
都能	-2089
制定和	-2090
经济发展	-2091
货运	-2092
%,	-2093
疲劳	-2094
较低	-2095
和社会	-2096
思考	-2097
定期进行	-2098
▁F	-2099
紧密	-2100
还可以通过	-2101
一项	-2102
来自	-2103
以下是	-2104
成本和	-2105
启动	-2106
实例	-2107
爆炸	-2108
主动	-2109
上下	-2110
拥堵	-2111
公平性	-2112
治疗方案	-2113
汽车制造商	-2114
目标的	-2115
变得更加	-2116
更环保的	-2117
航空航天系统	-2118
在处理	-2119
并采取	-2120
解决了	-2121
高性能	-2122
实时监测	-2123
逻辑	-2124
作为一位	-2125
经济效益	-2126
评估和	-2127
AR	-2128
经济的	-2129
打击能力	-2130
航空航天行业的	-2131
所需	-2132
如果您	-2133
需要具备	-2134
明显	-2135
▁人工智能在金融	-2136
最优	-2137
反映了	-2138
▁自动化	-2139
混合动力	-2140
一旦	-2141
创新的	-2142
常用的	-2143
的建设	-2144
涡轮	-2145
执行任务	-2146
尊重	-2147
交叉	-2148
库存	-2149
寻求	-2150
轻质	-2151
例如通过	-2152
历程	-2153
密度	-2154
局限	-2155
和理解	-2156
统计	-2157
过度	-2158
这些信息	-2159
航空航天公司	-2160
加大	-2161
的依赖	-2162
等因素	-2163
专业的	-2164
的智能	-2165
以及在	-2166
提高生产效率	-2167
是一个重要的	-2168
一体	-2169
从而实现	-2170
的技术和	-2171
随着技术的	-2172
伙伴	-2173
功率	-2174
及其	-2175
科学的	-2176
国际空间站	-2177
▁你能	-2178
拓展	-2179
000	-2180
航空航天工程中	-2181
这在	-2182
的太空	-2183
航空公司的	-2184
▁现代	-2185
减少碳排放	-2186
De	-2187
智能化的	-2188
这是一种	-2189
维持	-2190
驱逐	-2191
的任务	-2192
成像	-2193
物理学	-2194
恒星	-2195
的成功	-2196
科学实验	-2197
这可能会	-2198
技术可以	-2199
低空	-2200
归属	-2201
物资	-2202
卫星导航系统	-2203
减少对	-2204
的影响是	-2205
的过程	-2206
流量	-2207
▁中国在	-2208
组成部分	-2209
大量的数据	-2210
需求和	-2211
具体应用	-2212
迭代	-2213
实时监控	-2214
产生了深远影响	-2215
星系	-2216
转变	-2217
这有助于	-2218
影响到	-2219
方面有哪些	-2220
为何	-2221
所以	-2222
提高效率	-2223
地理	-2224
NLP	-2225
航空安全	-2226
舰的	-2227
更深入	-2228
设计与制造	-2229
外观	-2230
相机	-2231
电影	-2232
和测试	-2233
展现了	-2234
设立	-2235
数据安全	-2236
作战效能	-2237
▁综上所述	-2238
航空航天材料的	-2239
第二	-2240
医疗服务	-2241
IS	-2242
系统能够	-2243
领导	-2244
将在	-2245
一些关于	-2246
能源效率	-2247
和标准	-2248
空中交通管制	-2249
层次	-2250
差距	-2251
▁R	-2252
我们对	-2253
区别	-2254
总体	-2255
舰载机	-2256
外的	-2257
层面	-2258
成员	-2259
仿真	-2260
天体	-2261
延长	-2262
概率	-2263
突出	-2264
客机	-2265
来预测	-2266
弹道导弹	-2267
逼真	-2268
并根据	-2269
第一个	-2270
处理和分析	-2271
会议	-2272
▁我	-2273
将为	-2274
专注于	-2275
航空航天活动	-2276
你的	-2277
es	-2278
空域	-2279
科学家们	-2280
综合考虑	-2281
人工智能在教育	-2282
主要包括以下几个方面	-2283
未来趋势	-2284
主要有	-2285
复杂性	-2286
人体	-2287
和平	-2288
四号	-2289
和资源	-2290
撞击	-2291
环境中的	-2292
it	-2293
比较	-2294
航天员的	-2295
车身	-2296
它们的	-2297
地形	-2298
称为	-2299
并确保	-2300
深度学习和神经网络	-2301
▁随着	-2302
可重复	-2303
废弃物	-2304
资源和	-2305
传感器和	-2306
如何利用	-2307
这些措施	-2308
标注	-2309
有可能	-2310
不确定	-2311
现代化	-2312
ep	-2313
这样可以	-2314
令人	-2315
生理	-2316
产品和服务	-2317
追求	-2318
人为错误	-2319
我们能够	-2320
AN	-2321
而且	-2322
可以从	-2323
应用的	-2324
社会的	-2325
科技创新	-2326
▁请描述一下	-2327
ur	-2328
弹射	-2329
ic	-2330
行为和	-2331
智能机器人	-2332
负担	-2333
量的	-2334
919	-2335
以防止	-2336
经济增长	-2337
手机	-2338
推动作用	-2339
日益	-2340
太空旅游	-2341
供应链管理	-2342
态势	-2343
主要是	-2344
特定的	-2345
自适应	-2346
天气预报	-2347
这些都是	-2348
冲击	-2349
改装	-2350
太空的	-2351
另一方面	-2352
它的	-2353
使其在	-2354
▁人工智能在教育	-2355
聊天	-2356
结构的	-2357
最近	-2358
以确保其	-2359
能够提供	-2360
反舰	-2361
汽车行业	-2362
反导	-2363
效应	-2364
时期	-2365
▁建立	-2366
合法	-2367
用途	-2368
器和	-2369
在医疗	-2370
突发	-2371
而不	-2372
-10	-2373
做出了	-2374
上有哪些	-2375
一致	-2376
证明	-2377
空战	-2378
对手	-2379
▁P	-2380
期待	-2381
劳动力	-2382
航程	-2383
机组人员	-2384
坚实	-2385
奠定了	-2386
发动机和	-2387
深远影响	-2388
:1	-2389
Net	-2390
商业化	-2391
预算	-2392
在国际	-2393
武器的	-2394
的学习	-2395
深度学习模型	-2396
as	-2397
误差	-2398
食品	-2399
196	-2400
重型	-2401
什么是	-2402
产生了深远的影响	-2403
加油	-2404
监督学习	-2405
自动调整	-2406
解释一下	-2407
反潜	-2408
规律	-2409
投资者	-2410
使其能够	-2411
水下	-2412
这就	-2413
▁技术	-2414
位置和	-2415
深空探测	-2416
引力	-2417
遥感技术	-2418
授权	-2419
比赛	-2420
以及对	-2421
小行星	-2422
通信和	-2423
与人类	-2424
航母的	-2425
科技进步	-2426
生产效率和	-2427
燃油消耗	-2428
ed	-2429
光线	-2430
在不同	-2431
结构设计	-2432
制度	-2433
更轻	-2434
中的角色	-2435
帮助医生	-2436
北京	-2437
▁B	-2438
和工作	-2439
谷歌	-2440
至关重要的	-2441
精细	-2442
识别出	-2443
大数据和	-2444
是多方面的	-2445
温室	-2446
建筑	-2447
创造了	-2448
聊天机器人	-2449
ph	-2450
05	-2451
和高	-2452
过去	-2453
语音助手	-2454
大小	-2455
将其	-2456
并为	-2457
做出决策	-2458
地方	-2459
引起	-2460
引进	-2461
收入	-2462
有利	-2463
广泛的	-2464
合成	-2465
中的一些	-2466
▁高	-2467
等任务	-2468
我们的生活	-2469
变革	-2470
对环境的	-2471
信用	-2472
装配	-2473
▁安全	-2474
或其他	-2475
的提升	-2476
人脸识别	-2477
至关重要的作用	-2478
感兴趣	-2479
发展趋势	-2480
通过优化	-2481
天实验舱	-2482
资料	-2483
ent	-2484
信息的	-2485
预处理	-2486
伤害	-2487
与传统	-2488
在使用	-2489
政策的	-2490
航天科技	-2491
手术	-2492
人工智能和机器学习	-2493
恶意	-2494
损害	-2495
表达	-2496
尽量	-2497
更远	-2498
线性	-2499
废物	-2500
财务	-2501
Goo	-2502
引发了	-2503
ra	-2504
这可能包括	-2505
自动驾驶车辆	-2506
中国海军	-2507
中扮演着	-2508
通常会	-2509
以及如何	-2510
涵盖了	-2511
座椅	-2512
天气条件	-2513
训练数据	-2514
训练模型	-2515
兄弟	-2516
匹配	-2517
组件	-2518
不公平	-2519
性质	-2520
多样性	-2521
它能够	-2522
的结果	-2523
但在	-2524
参加	-2525
你可以	-2526
定位和	-2527
2)	-2528
不能	-2529
▁因此	-2530
太阳系	-2531
无人机在	-2532
影响力	-2533
二氧化碳	-2534
gle	-2535
▁针对	-2536
和行为	-2537
通信系统	-2538
学校	-2539
背景下	-2540
可以帮助您	-2541
的安全问题	-2542
和需求	-2543
21	-2544
比例	-2545
当地	-2546
装备的	-2547
最大的	-2548
隐私问题	-2549
学术	-2550
故事	-2551
方位	-2552
的质量	-2553
▁人工智能可以通过	-2554
多少	-2555
赛车	-2556
目标是	-2557
可行	-2558
科研人员	-2559
宝贵	-2560
无论	-2561
多次	-2562
容易	-2563
疫情	-2564
损坏	-2565
▁在人工智能	-2566
协议	-2567
熟悉	-2568
发挥了	-2569
)。	-2570
40	-2571
政治	-2572
比亚	-2573
增强现实	-2574
技术进步	-2575
教授	-2576
决策制定	-2577
”。	-2578
地图	-2579
研发的	-2580
详细的	-2581
精确打击	-2582
发明	-2583
德国	-2584
现在	-2585
只有	-2586
学院	-2587
▁自然语言处理	-2588
表现在	-2589
通过与	-2590
人民	-2591
试飞	-2592
CNN	-2593
耐腐蚀	-2594
方便	-2595
的军事	-2596
90	-2597
网联	-2598
进而	-2599
和学习	-2600
定期检查	-2601
向量	-2602
提供更好的	-2603
喜好	-2604
强大	-2605
制造技术	-2606
局限性	-2607
全球范围内	-2608
优秀	-2609
看到	-2610
特殊的	-2611
航空航天器	-2612
肌肉	-2613
程度上	-2614
到达	-2615
第一次	-2616
35	-2617
▁I	-2618
专利	-2619
同步	-2620
创造出	-2621
持续的	-2622
消费者的	-2623
需要考虑到	-2624
展现出	-2625
项目中	-2626
反射	-2627
威慑	-2628
准确率	-2629
影响了	-2630
政策制定	-2631
空气质量	-2632
知识和技能	-2633
克兰	-2634
在技术	-2635
数据分析和预测	-2636
is	-2637
较高的	-2638
航空航天安全	-2639
如何提高	-2640
火力	-2641
采购	-2642
相似	-2643
航空航天产业的	-2644
航行	-2645
解答	-2646
商业模式	-2647
精准的	-2648
达到了	-2649
的过程中	-2650
BM	-2651
与地面	-2652
个人数据	-2653
电子设备	-2654
模仿	-2655
的情况	-2656
这种技术	-2657
忽视	-2658
操纵	-2659
立即	-2660
这项	-2661
地质	-2662
我会	-2663
进度	-2664
支持和	-2665
如何实现	-2666
▁航空航天领域的	-2667
-6	-2668
广告	-2669
航空航天探索	-2670
流体	-2671
研究和开发	-2672
身份	-2673
可靠的	-2674
机动性	-2675
的成本	-2676
可以采取	-2677
能在	-2678
大大提高	-2679
法规和政策	-2680
3)	-2681
采集	-2682
优先	-2683
回归	-2684
团队合作	-2685
公司在	-2686
多元	-2687
统一	-2688
环境监测	-2689
▁航空航天工程	-2690
人工智能可以根据	-2691
情绪	-2692
斯坦	-2693
研究的	-2694
成功发射	-2695
最佳的	-2696
推荐系统	-2697
声音	-2698
确保在	-2699
未知	-2700
环境问题	-2701
加入	-2702
氧气	-2703
捕捉到	-2704
有一些	-2705
生动	-2706
自然语言处理技术	-2707
射线	-2708
尾气	-2709
真正	-2710
来优化	-2711
火星探测	-2712
平等	-2713
Google	-2714
▁加强	-2715
如何平衡	-2716
审计	-2717
它通过	-2718
追溯	-2719
历史上	-2720
工作的	-2721
建模	-2722
需要对	-2723
深度学习技术	-2724
元素	-2725
合同	-2726
调节	-2727
卫星和	-2728
可以利用	-2729
更有效的	-2730
提供更加	-2731
%。	-2732
为人类	-2733
争议	-2734
雷达和	-2735
并提高	-2736
飞机设计	-2737
缺陷	-2738
都在	-2739
采取了哪些	-2740
毫米	-2741
随机	-2742
数据处理	-2743
飞行路径	-2744
电气	-2745
超音速飞行	-2746
之处	-2747
接触	-2748
谈谈	-2749
还在	-2750
配备了	-2751
社交媒体	-2752
和运营	-2753
出舱	-2754
很多	-2755
其中一些	-2756
历史发展	-2757
优点	-2758
磨损	-2759
▁模型	-2760
会产生	-2761
固定	-2762
实体	-2763
从而降低	-2764
旅客	-2765
群体	-2766
灵活性和	-2767
▁除了	-2768
▁航空航天科学	-2769
但是	-2770
成分	-2771
产业发展	-2772
燃料电池	-2773
全球定位系统	-2774
超越	-2775
高空	-2776
客户的	-2777
提到的	-2778
无线电	-2779
明确的	-2780
被认为	-2781
Deep	-2782
军事行动	-2783
演化	-2784
ation	-2785
▁人工智能的发展	-2786
to	-2787
将对	-2788
东风	-2789
特兄弟	-2790
情感分析	-2791
无人机技术	-2792
2.	-2793
公开	-2794
对地	-2795
间的	-2796
▁面对	-2797
责任归属	-2798
以下几种方式	-2799
传递	-2800
人工智能可能会	-2801
举例	-2802
-16	-2803
ES	-2804
三维	-2805
智能的	-2806
稳定的	-2807
分为	-2808
以避免	-2809
数据保护	-2810
游戏体验	-2811
and	-2812
等领域的	-2813
和合作	-2814
在全球	-2815
有的	-2816
16	-2817
品质	-2818
销量	-2819
全方位	-2820
泛化	-2821
以下几个步骤	-2822
飞行控制系统	-2823
能够实现	-2824
对你	-2825
人类对	-2826
侦察和	-2827
航天飞机	-2828
冷却	-2829
失败	-2830
清洗	-2831
振动	-2832
和市场	-2833
经济性	-2834
条件下的	-2835
自动驾驶汽车的	-2836
航空航天系统的	-2837
的安全性和可靠性	-2838
ol	-2839
土壤	-2840
以保持	-2841
自动化和	-2842
出的	-2843
高端	-2844
与美国	-2845
关联	-2846
三个	-2847
基因	-2848
ig	-2849
和应对	-2850
可能引发	-2851
自然灾害	-2852
语音识别和	-2853
边缘	-2854
开发的	-2855
环境影响	-2856
航空航天设备的	-2857
上进行	-2858
成功地	-2859
▁人工智能在医疗	-2860
人工智能可以通过分析	-2861
序列	-2862
拟合	-2863
揭示	-2864
举例说明	-2865
人类语言	-2866
如何解决	-2867
道德和伦理问题	-2868
居住	-2869
做出更	-2870
实时的	-2871
活动的	-2872
更准确的	-2873
需要我们	-2874
全球范围内的	-2875
对比	-2876
探讨	-2877
支援	-2878
改革	-2879
模型在	-2880
更好地了解	-2881
组装	-2882
一部分	-2883
在月球	-2884
地球上的	-2885
工厂	-2886
解析	-2887
发挥着	-2888
▁俄罗斯	-2889
几种	-2890
漏洞	-2891
帮助学生	-2892
选择适合	-2893
飞行器在	-2894
社区	-2895
:1)	-2896
-22	-2897
GPT	-2898
将继续	-2899
飞船的	-2900
合理的	-2901
▁人工智能如何帮助	-2902
发送	-2903
朝鲜	-2904
耐久	-2905
驱逐舰	-2906
顺利进行	-2907
低温	-2908
惯性	-2909
导致的	-2910
提高飞行	-2911
生物燃料	-2912
▁E	-2913
单元	-2914
斯特	-2915
敌方的	-2916
改造	-2917
长途	-2918
▁目前	-2919
温室气体	-2920
视为	-2921
障碍物	-2922
▁歼	-2923
乌克兰	-2924
完成了	-2925
火灾	-2926
制造工艺	-2927
保健	-2928
有害	-2929
的理解	-2930
性能和安全性	-2931
航空航天技术的进步	-2932
固体	-2933
地震	-2934
深化	-2935
战争中	-2936
的要求	-2937
生产成本	-2938
新能源汽车的	-2939
人脑	-2940
-7	-2941
主题	-2942
面积	-2943
规定了	-2944
感和	-2945
有用	-2946
费用	-2947
配合	-2948
扫描	-2949
汽车在	-2950
▁这	-2951
例如在	-2952
可以确保	-2953
可以自动	-2954
随着科技的	-2955
天线	-2956
成立	-2957
技术等	-2958
最新研究	-2959
18	-2960
您需要	-2961
ST	-2962
光谱	-2963
可控	-2964
服役	-2965
离子	-2966
镜头	-2967
随时	-2968
有效性	-2969
等信息	-2970
高质量的	-2971
停车	-2972
梯度	-2973
可能会被	-2974
生态系统	-2975
和建议	-2976
升力	-2977
编队	-2978
观众	-2979
食物	-2980
推进剂	-2981
深远的影响	-2982
航空航天设备	-2983
决于	-2984
商用	-2985
打造	-2986
是由	-2987
治理	-2988
以保护	-2989
取决于	-2990
和保护	-2991
设计和开发	-2992
汽车工业	-2993
始终	-2994
能够更好地	-2995
相较	-2996
相较于	-2997
可以进行	-2998
被广泛应用于	-2999
创意	-3000
在这个	-3001
▁作为一位	-3002
自动化的	-3003
可能出现的	-3004
找出	-3005
轨迹	-3006
玩家的	-3007
规划和	-3008
通过不断	-3009
pha	-3010
从而在	-3011
和性能	-3012
和解决	-3013
Al	-3014
以来	-3015
干预	-3016
自由	-3017
转移	-3018
中起着	-3019
帮助他们	-3020
形象	-3021
英国	-3022
运作	-3023
道德和伦理	-3024
版权	-3025
隐蔽	-3026
人机交互	-3027
人造	-3028
修理	-3029
需要解决	-3030
利用人工智能	-3031
▁航空航天工业	-3032
相当	-3033
科技的发展	-3034
文章	-3035
补给	-3036
一系列的	-3037
量和	-3038
生产过程	-3039
这些系统	-3040
减少对环境的影响	-3041
云计算	-3042
两种	-3043
素质	-3044
黑洞	-3045
将推动	-3046
图像和视频	-3047
级别	-3048
莱特兄弟	-3049
也对	-3050
更具	-3051
这些都	-3052
工作效率	-3053
航空航天器的	-3054
数据科学	-3055
需要遵守	-3056
▁与	-3057
年内	-3058
权利	-3059
需求的	-3060
面临的	-3061
正确的	-3062
集中在	-3063
行业的发展	-3064
流动	-3065
▁预测	-3066
被称为	-3067
智能化和	-3068
生存能力	-3069
占据	-3070
新材料	-3071
安排	-3072
申请	-3073
与政策	-3074
工具和	-3075
是否有	-3076
积极的	-3077
运营成本	-3078
ER	-3079
人力资源	-3080
高精度的	-3081
总结	-3082
美元	-3083
著名	-3084
尽可能	-3085
火箭发动机	-3086
▁要	-3087
兼容	-3088
各自	-3089
铝合金	-3090
这种方法	-3091
全新的	-3092
技术发展	-3093
人工智能对	-3094
未来发展趋势	-3095
03	-3096
卷积神经网络	-3097
精密	-3098
视角	-3099
较高	-3100
航空公司和	-3101
航空航天法律	-3102
ec	-3103
上海	-3104
劳动	-3105
新闻	-3106
星际	-3107
经验和	-3108
让学生	-3109
中有哪些	-3110
学习和改进	-3111
形成了	-3112
航空交通	-3113
采取措施	-3114
技术创新和	-3115
释放	-3116
长的	-3117
防空系统	-3118
单位	-3119
那些	-3120
在航天	-3121
积极影响	-3122
主要表现在	-3123
天宫	-3124
空天	-3125
for	-3126
如何应对	-3127
主义	-3128
它不仅	-3129
节点	-3130
论文	-3131
鲁棒	-3132
网站	-3133
行车	-3134
-15	-3135
通过这些	-3136
对人工智能的	-3137
零售	-3138
探索和	-3139
人工智能与	-3140
书籍	-3141
融入	-3142
黑客	-3143
航天局	-3144
领先地位	-3145
诊断和治疗	-3146
机和	-3147
超声	-3148
现有的	-3149
份额	-3150
有人	-3151
制造和	-3152
在复杂	-3153
将成为	-3154
一些挑战	-3155
应用领域	-3156
环保意识	-3157
产生深远影响	-3158
直观	-3159
碎片	-3160
配送	-3161
GAN	-3162
提高其	-3163
网络安全	-3164
▁北斗	-3165
民用航空	-3166
语音识别技术	-3167
人工智能领域的	-3168
-8	-3169
预定	-3170
天文学	-3171
战机的	-3172
提出的	-3173
有没有	-3174
的效果	-3175
激励	-3176
高压	-3177
上下文	-3178
▁个性化	-3179
它可以通过	-3180
更复杂的	-3181
在实际	-3182
有所不同	-3183
内饰	-3184
意见	-3185
百度	-3186
航电	-3187
▁国际	-3188
政府和	-3189
监控和	-3190
▁人工智能技术在	-3191
作物	-3192
优势和	-3193
▁你认为	-3194
火箭发射	-3195
环境污染	-3196
也是一个重要的	-3197
钛合金	-3198
▁以上就	-3199
数据泄露	-3200
面临的挑战	-3201
1.	-3202
一直	-3203
分离	-3204
2020	-3205
希望对您有所帮助	-3206
17	-3207
观点	-3208
在汽车	-3209
地进行	-3210
周围环境	-3211
需要注意	-3212
来解决	-3213
健康发展	-3214
太空中的	-3215
光学	-3216
金融服务	-3217
可能会引发	-3218
周边	-3219
液体	-3220
具体措施	-3221
算法和模型	-3222
全国	-3223
明智	-3224
所需的	-3225
做好	-3226
原子	-3227
当时	-3228
为我们	-3229
相结合	-3230
可以有效	-3231
简化	-3232
这次	-3233
可能包括	-3234
也推动了	-3235
方向发展	-3236
通过卫星	-3237
需要不断	-3238
ag	-3239
开启	-3240
现场	-3241
研究方向	-3242
25	-3243
应用场景	-3244
地点	-3245
的研发	-3246
的空间	-3247
国家安全	-3248
巡航导弹	-3249
防御能力	-3250
事故的发生	-3251
辅导	-3252
电动车	-3253
机油	-3254
电视	-3255
研究中	-3256
范围内	-3257
生产流程	-3258
航空发动机	-3259
卓越	-3260
天舟	-3261
开发和	-3262
通过模拟	-3263
初步	-3264
来减少	-3265
这可以	-3266
▁另外	-3267
探索宇宙	-3268
导航系统的	-3269
价值观	-3270
多方面	-3271
的图像	-3272
方面的应用	-3273
提供个性化的学习	-3274
AP	-3275
两栖	-3276
超级	-3277
有什么影响	-3278
二战	-3279
防务	-3280
有更多的	-3281
▁G	-3282
意图	-3283
考量	-3284
调度	-3285
▁优化	-3286
专门的	-3287
神经元	-3288
医生进行	-3289
药物研发	-3290
大脑	-3291
装甲	-3292
▁提供	-3293
和经济	-3294
使用寿命	-3295
侦查	-3296
并不	-3297
送入	-3298
的例子	-3299
实现对	-3300
人工智能的决策过程	-3301
▁N	-3302
任务时	-3303
可以预测	-3304
我们应该	-3305
无人机和	-3306
》:	-3307
为用户	-3308
一般	-3309
创业	-3310
许可	-3311
革命	-3312
乘客和	-3313
的角色	-3314
核心技术	-3315
项目管理	-3316
碳纤维复合材料	-3317
双方	-3318
精确地	-3319
计划和	-3320
权重	-3321
演练	-3322
陶瓷	-3323
化石	-3324
在飞机	-3325
通常需要	-3326
系统中的	-3327
能够理解和	-3328
这可能导致	-3329
8.	-3330
奖励	-3331
的市场	-3332
2018	-3333
▁航空航天技术	-3334
居民	-3335
指示	-3336
模糊	-3337
深刻	-3338
tion	-3339
能够快速	-3340
机器学习和深度学习	-3341
教育领域	-3342
om	-3343
级的	-3344
有价值	-3345
协同工作	-3346
如何处理	-3347
心理健康	-3348
投资决策	-3349
of	-3350
起到	-3351
交会对	-3352
交会对接	-3353
直接影响	-3354
通信技术	-3355
透明度和可解释性	-3356
延迟	-3357
远距离	-3358
他的	-3359
迁移	-3360
的精确	-3361
工业生产	-3362
的需求和	-3363
飞行员和	-3364
控制系统的	-3365
气流	-3366
乘客的	-3367
不必要的	-3368
不受	-3369
国防安全	-3370
多方面的	-3371
能够有效	-3372
跑道	-3373
它们在	-3374
中的应用有哪些	-3375
以及它	-3376
可以使	-3377
的提高	-3378
的模型	-3379
方面取得了	-3380
减速	-3381
豪华	-3382
的一部分	-3383
的战略	-3384
更加高效	-3385
防空导弹	-3386
生长	-3387
可以对	-3388
可以降低	-3389
ens	-3390
帮助您	-3391
收集和	-3392
这标志着	-3393
有助于提高	-3394
航空航天的	-3395
人才的	-3396
定期的	-3397
有多种	-3398
一是	-3399
上月球	-3400
和排放	-3401
太空垃圾	-3402
有趣	-3403
在面对	-3404
而言之	-3405
推进技术	-3406
数据传输	-3407
能够根据	-3408
了一	-3409
购物	-3410
0.	-3411
代码	-3412
缓解	-3413
起飞和	-3414
选择和	-3415
▁机器学习	-3416
母舰	-3417
洲际	-3418
公众的	-3419
对汽车	-3420
需要综合考虑	-3421
航空航天产业的发展	-3422
贷款	-3423
▁全球	-3424
交通拥堵	-3425
职业发展	-3426
的效率和准确性	-3427
压缩	-3428
焊接	-3429
常规	-3430
时刻	-3431
终端	-3432
与合作	-3433
分布式	-3434
驾驶体验	-3435
在飞行过程中	-3436
自动驾驶系统	-3437
仪器	-3438
检验	-3439
不平等	-3440
正常工作	-3441
小的	-3442
标记	-3443
通航	-3444
是否会	-3445
交通运输	-3446
可以帮助企业	-3447
二是	-3448
激光雷达	-3449
航空技术	-3450
这可以通过	-3451
对你有所帮助	-3452
启示	-3453
最重要的	-3454
模型训练	-3455
太空中	-3456
客户满意度	-3457
免受	-3458
边界	-3459
还将	-3460
再利用	-3461
表面的	-3462
进行的	-3463
率和	-3464
▁th	-3465
避免了	-3466
中扮演了	-3467
外形	-3468
失业	-3469
视野	-3470
处理大量的	-3471
学习和适应	-3472
Go	-3473
人士	-3474
左右	-3475
▁利用	-3476
空军的	-3477
▁为什么	-3478
▁请讨论	-3479
主要用于	-3480
什么角色	-3481
▁H	-3482
列举	-3483
和对	-3484
态度	-3485
沉浸	-3486
而不是	-3487
实际应用中	-3488
优惠	-3489
后续的	-3490
实现的	-3491
等多个领域	-3492
▁从	-3493
纳米	-3494
开发出	-3495
的特点	-3496
这需要	-3497
中的应用非常广泛	-3498
兴起	-3499
个人的	-3500
加强了	-3501
主要表现在以下几个方面	-3502
4)	-3503
暴露	-3504
都需要	-3505
通用航空	-3506
交付	-3507
面的	-3508
更快速	-3509
总而言之	-3510
电机	-3511
决策树	-3512
极高的	-3513
经历了	-3514
提供了新的	-3515
测控	-3516
在推动	-3517
游戏中	-3518
欺诈检测	-3519
游戏中的	-3520
ind	-3521
即使在	-3522
不确定性	-3523
欺诈行为	-3524
这些材料	-3525
14	-3526
机载	-3527
在进行	-3528
航天器和	-3529
航空航天工程师	-3530
分子	-3531
营养	-3532
隐藏	-3533
等功能	-3534
中发挥了	-3535
提供一些	-3536
这种设计	-3537
RNN	-3538
的速度	-3539
飞行中	-3540
数据挖掘	-3541
生活质量	-3542
监管机构	-3543
本身	-3544
维修和	-3545
考虑因素	-3546
通过分析大量的	-3547
和水	-3548
颜色	-3549
建议和	-3550
宇宙飞船	-3551
od	-3552
喷气式	-3553
系统进行	-3554
图像识别和	-3555
玩家的行为	-3556
22	-3557
落地	-3558
主要的	-3559
以降低	-3560
可以将	-3561
因为它	-3562
目的地	-3563
还可能	-3564
工作岗位	-3565
国家和地区	-3566
em	-3567
模态	-3568
▁长征	-3569
▁神舟十	-3570
定制化的	-3571
这些因素	-3572
也可以用于	-3573
制造过程中	-3574
航空摄影师	-3575
阅读	-3576
面部	-3577
这样的	-3578
中发挥着	-3579
显著提高	-3580
网络攻击	-3581
航空模型	-3582
围棋	-3583
证据	-3584
▁提升	-3585
空气污染	-3586
被认为是	-3587
在环保	-3588
能够通过	-3589
测试和验证	-3590
航空航天工程的	-3591
编码	-3592
和高效	-3593
化石燃料	-3594
来的	-3595
类别	-3596
和成本	-3597
值得关注	-3598
管理体系	-3599
重要的影响	-3600
激烈	-3601
相同	-3602
500	-3603
和国际	-3604
带动了	-3605
应用中	-3606
耐高温	-3607
phaGo	-3608
对人工智能	-3609
性和安全性	-3610
等待	-3611
智能网联	-3612
研究如何	-3613
燃油效率和	-3614
AT	-3615
定律	-3616
以提升	-3617
算法来	-3618
太空环境	-3619
和数据安全	-3620
星的	-3621
阿姆	-3622
与国际	-3623
计划在	-3624
交通流量	-3625
飞机的重量	-3626
从中	-3627
可视	-3628
粒子	-3629
这也	-3630
通过在	-3631
机器人的	-3632
返回地球	-3633
▁D	-3634
一体化	-3635
决策和	-3636
方法和	-3637
太空探索的	-3638
汽车行业的	-3639
后果	-3640
租赁	-3641
联盟	-3642
在极端	-3643
对地球	-3644
核动力	-3645
确保所有	-3646
设备故障	-3647
us	-3648
并行	-3649
文件	-3650
湿度	-3651
的作用	-3652
成为可能	-3653
阿姆斯特	-3654
磁场	-3655
服务的	-3656
卫星发射	-3657
年轻	-3658
招聘	-3659
和模式	-3660
和评估	-3661
的领域	-3662
载人飞船	-3663
在紧急情况下	-3664
▁“	-3665
或缺	-3666
真空	-3667
经典	-3668
有利于	-3669
深远的	-3670
俄罗斯的	-3671
技术挑战	-3672
预测未来的	-3673
减小	-3674
违反	-3675
途径	-3676
对象	-3677
▁空间	-3678
性能的	-3679
续航里程	-3680
之间的关系	-3681
灾难	-3682
事故调查	-3683
▁这些只是	-3684
航空航天科学的	-3685
举措	-3686
优质	-3687
十年	-3688
机型	-3689
时间内	-3690
的案例	-3691
舒适性	-3692
阿姆斯特朗	-3693
主要包括以下几点	-3694
更大	-3695
智能驾驶	-3696
何种	-3697
冗余	-3698
吸收	-3699
应当	-3700
知名	-3701
GPU	-3702
潜艇的	-3703
公司正在	-3704
密集	-3705
星球	-3706
方面具有	-3707
更深入地	-3708
泛化能力	-3709
极大地提高了	-3710
企业在	-3711
信息和	-3712
模型的性能	-3713
弹头	-3714
旋转	-3715
会根据	-3716
和支持	-3717
对中国	-3718
耐久性	-3719
专业知识	-3720
雷达系统	-3721
可以帮助你	-3722
引领	-3723
海外	-3724
阿里	-3725
员工的	-3726
来评估	-3727
预警机	-3728
卫星技术	-3729
可能会出现	-3730
ac	-3731
夜间	-3732
处理能力	-3733
发动机技术	-3734
临床	-3735
初期	-3736
大众	-3737
密封	-3738
并通过	-3739
打印技术	-3740
渠道	-3741
车载	-3742
low	-3743
应用程序	-3744
正式	-3745
舰队	-3746
等关键	-3747
以下是一些常见的	-3748
体积	-3749
欧盟	-3750
突防	-3751
场景中	-3752
注意力	-3753
额外的	-3754
分割	-3755
则是	-3756
护卫	-3757
机长	-3758
资产	-3759
车企	-3760
责任和	-3761
创新思维	-3762
电动飞机	-3763
模式和趋势	-3764
可重复使用的	-3765
帮助金融机构	-3766
▁人工智能如何	-3767
原始	-3768
行业中	-3769
可持续的	-3770
路径规划	-3771
高分辨率	-3772
伤亡	-3773
十分	-3774
告诉	-3775
来看	-3776
适航	-3777
应用到	-3778
教育的	-3779
不断改进	-3780
使计算机	-3781
通过人工智能技术	-3782
未来的航空航天技术	-3783
益于	-3784
之一是	-3785
如果你	-3786
追溯到	-3787
重大的	-3788
的训练	-3789
▁《	-3790
仪表	-3791
未经	-3792
的特征	-3793
空导弹	-3794
事故发生	-3795
创新能力	-3796
进行调整	-3797
天问	-3798
失去	-3799
轻型	-3800
导致了	-3801
控制中心	-3802
智能助手	-3803
用户的隐私	-3804
采用了哪些	-3805
半径	-3806
研讨	-3807
合作伙伴	-3808
哪些挑战	-3809
金融领域	-3810
中的重要性	-3811
里程碑事件	-3812
os	-3813
车道	-3814
以下步骤	-3815
健康状况	-3816
材料选择	-3817
制定相应的	-3818
不再	-3819
宝马	-3820
事故的	-3821
已经在	-3822
历史上的	-3823
无人驾驶飞行器	-3824
57	-3825
失效	-3826
波段	-3827
▁哪些	-3828
了一个	-3829
环境变化	-3830
进入太空	-3831
和增强现实	-3832
未来的发展	-3833
展览	-3834
防范	-3835
非法	-3836
和信息	-3837
情况和	-3838
相比于	-3839
最高	-3840
舒适度	-3841
跨学科	-3842
公平性和	-3843
尾气排放	-3844
可以提供更	-3845
▁人工智能技术	-3846
am	-3847
伊朗	-3848
而非	-3849
提供的	-3850
可能带来	-3851
隐身性能	-3852
可能带来的	-3853
将使	-3854
平台的	-3855
有何不同	-3856
13	-3857
六号	-3858
不可或缺	-3859
让计算机	-3860
飞行过程中	-3861
发挥重要作用	-3862
▁O	-3863
借鉴	-3864
几乎	-3865
最小	-3866
甲板	-3867
股票	-3868
遗传	-3869
银行	-3870
偏见和	-3871
和提高	-3872
自身的	-3873
重要贡献	-3874
人物	-3875
指出	-3876
更低	-3877
事业的	-3878
对我国	-3879
数据来	-3880
通过将	-3881
带来更多的	-3882
万辆	-3883
上升	-3884
平均	-3885
损伤	-3886
整车	-3887
知道	-3888
算力	-3889
院士	-3890
决策者	-3891
战争的	-3892
的关系	-3893
可以通过分析	-3894
航空航天制造业	-3895
商品	-3896
推出	-3897
法国	-3898
紧张	-3899
这表明	-3900
期望	-3901
;2)	-3902
人工智能发展	-3903
洞察	-3904
耐热	-3905
抗干扰	-3906
的限制	-3907
遥感卫星	-3908
航空航天项目	-3909
军民	-3910
驻留	-3911
汽车品牌	-3912
领域有哪些	-3913
并采取相应的	-3914
▁在航空航天工程中	-3915
层的	-3916
集群	-3917
高校	-3918
▁然而	-3919
过拟合	-3920
▁新	-3921
资本	-3922
和探索	-3923
的地方	-3924
的算法	-3925
嫦娥五号	-3926
工作原理	-3927
有何具体	-3928
▁希望以上	-3929
商业领域的	-3930
潜在的风险	-3931
航空航天工业的	-3932
丰田	-3933
和操作	-3934
野生动	-3935
领域取得了	-3936
亿元	-3937
区块	-3938
普通	-3939
答案	-3940
企业和	-3941
舒适的	-3942
部件的	-3943
只是一些	-3944
通过提供	-3945
航空航天工业的发展	-3946
il	-3947
严重的	-3948
和调整	-3949
让机器	-3950
运输机	-3951
例如使用	-3952
可能影响	-3953
科技发展	-3954
竞争优势	-3955
飞行速度	-3956
技能和知识	-3957
普遍	-3958
机构和	-3959
的实施	-3960
路况	-3961
使他们	-3962
实际上	-3963
生产和	-3964
还包括	-3965
以下方式	-3966
依靠	-3967
较大	-3968
队伍	-3969
交通信	-3970
以保证	-3971
交通信号	-3972
进一步提高	-3973
利润	-3974
很大	-3975
敌人	-3976
易于	-3977
重复性	-3978
数据中的	-3979
农民	-3980
空客	-3981
经营	-3982
警告	-3983
通道	-3984
采样	-3985
建立了	-3986
更快地	-3987
中有许多	-3988
模型进行	-3989
经济的发展	-3990
效率和安全性	-3991
更强	-3992
的优势	-3993
的增加	-3994
述一下	-3995
问题时	-3996
储存	-3997
锻炼	-3998
IBM	-3999
便利性	-4000
核心舱	-4001
显著优势	-4002
人工智能还可以帮助	-4003
减排	-4004
悬挂	-4005
摧毁	-4006
骨骼	-4007
可以考虑	-4008
自主研发	-4009
起飞和降落	-4010
也要	-4011
搜救	-4012
盈利	-4013
我国在	-4014
遇到了	-4015
以及这些	-4016
培训和教育	-4017
导弹防御系统	-4018
消失	-4019
迹象	-4020
;3)	-4021
为学生	-4022
▁在设计	-4023
预测模型	-4024
主要集中在	-4025
重要的角色	-4026
土地	-4027
报道	-4028
探月	-4029
使用人工智能技术	-4030
的影响是多方面的	-4031
理想	-4032
短缺	-4033
并减少	-4034
越来越多	-4035
问天实验舱	-4036
区块链	-4037
和问题	-4038
并及时	-4039
采用的	-4040
社会影响	-4041
通过智能	-4042
面临的主要	-4043
ir	-4044
不当	-4045
员的	-4046
弹药	-4047
方的	-4048
界面	-4049
大模型	-4050
恶劣天气	-4051
研究成果	-4052
奠定了基础	-4053
乘组	-4054
韩国	-4055
其中包括	-4056
团队成员	-4057
id	-4058
和目标	-4059
在某些	-4060
反舰导弹	-4061
性能和可靠性	-4062
随着技术的不断进步	-4063
利亚	-4064
过滤	-4065
性维护	-4066
高度的	-4067
专业人才	-4068
基本原理	-4069
研发和应用	-4070
效率和准确性	-4071
发出	-4072
标签	-4073
照明	-4074
税收	-4075
舱外	-4076
起来	-4077
使用和	-4078
全球化	-4079
研讨会	-4080
成本效益	-4081
武器装备	-4082
政策和法规	-4083
Py	-4084
植物	-4085
流畅	-4086
睡眠	-4087
进气	-4088
和风险	-4089
通常包括	-4090
隐私和安全	-4091
充满	-4092
失重	-4093
纠正	-4094
风洞	-4095
学习到	-4096
证明了	-4097
2021	-4098
新的就业机会	-4099
一款	-4100
协会	-4101
多功能	-4102
生成的	-4103
如何保证	-4104
可以追溯到	-4105
是人工智能的	-4106
随着技术的发展	-4107
一起	-4108
▁制定	-4109
▁飞行	-4110
2022	-4111
▁V	-4112
优异	-4113
军工	-4114
可达	-4115
图灵	-4116
加速了	-4117
▁请谈谈	-4118
越来越广泛	-4119
。"	-4120
形态	-4121
短期	-4122
火星的	-4123
热力学	-4124
被滥用	-4125
通过改进	-4126
机器学习技术	-4127
发挥了重要作用	-4128
能耗	-4129
隐患	-4130
是多少	-4131
标准化	-4132
安防	-4133
解放	-4134
机动性和	-4135
世界上第一	-4136
坚持	-4137
接口	-4138
利用率	-4139
探测和	-4140
燃料的	-4141
不断优化	-4142
的决策过程	-4143
的重要组成部分	-4144
尼尔	-4145
灯光	-4146
腾讯	-4147
主要通过	-4148
进行有效的	-4149
的安全性和效率	-4150
航天技术的发展	-4151
道德和法律问题	-4152
示范	-4153
进度和	-4154
法律责任	-4155
表现出色	-4156
需要确保	-4157
需要通过	-4158
进一步提升	-4159
航空航天科普	-4160
音频	-4161
ear	-4162
是非常	-4163
燃料和	-4164
ad	-4165
冷静	-4166
呈现	-4167
可以让	-4168
可行性	-4169
的保护	-4170
在设计和	-4171
是怎样的	-4172
开发和使用	-4173
AA	-4174
偏差	-4175
制造中	-4176
合规性	-4177
对未来	-4178
更强的	-4179
健康问题	-4180
航空业的	-4181
做出更明智	-4182
取得了哪些	-4183
广泛应用于	-4184
冠军	-4185
式的	-4186
提醒	-4187
频繁	-4188
饮食	-4189
是确保	-4190
更安全	-4191
创新技术	-4192
快速响应	-4193
个性化教学	-4194
实习	-4195
尚未	-4196
局部	-4197
会导致	-4198
数据时	-4199
的核心	-4200
▁and	-4201
▁the	-4202
生命安全	-4203
我们可以期待	-4204
修改	-4205
外星	-4206
成绩	-4207
市场上	-4208
人工智能的决策	-4209
成长	-4210
最初	-4211
瞬间	-4212
购车	-4213
火星车	-4214
应对策略	-4215
研发投入	-4216
跨越	-4217
▁持续	-4218
被视为	-4219
技术难题	-4220
政策制定者	-4221
指南	-4222
构造	-4223
▁8.	-4224
分类和	-4225
导航与	-4226
中起到了	-4227
复杂性和	-4228
技术突破	-4229
保持良好的	-4230
点火	-4231
联邦	-4232
战斗力	-4233
是一项	-4234
深入的	-4235
的机会	-4236
Mind	-4237
主导	-4238
ans	-4239
的科学	-4240
性能和效率	-4241
机器人技术	-4242
产生重大影响	-4243
空中交通管理	-4244
产生了重大影响	-4245
估计	-4246
展开	-4247
预见	-4248
以增强	-4249
公众对	-4250
其性能	-4251
▁请详细	-4252
利用效率	-4253
动力电池	-4254
▁自动驾驶	-4255
以下是其中一些	-4256
亚马	-4257
变暖	-4258
福特	-4259
空调	-4260
如智能	-4261
更远的	-4262
水资源	-4263
疾病的	-4264
是至关重要的	-4265
相关产业的发展	-4266
一套	-4267
倾向	-4268
论坛	-4269
兴趣和	-4270
的优化	-4271
缩短了	-4272
车联网	-4273
2017	-4274
天问一号	-4275
上的应用	-4276
控阵	-4277
波动	-4278
爆发	-4279
米格	-4280
ICA	-4281
内容和	-4282
标准的	-4283
等多种	-4284
▁数据分析	-4285
分钟	-4286
气压	-4287
石油	-4288
在现代	-4289
旅游业	-4290
▁196	-4291
工程师们	-4292
市场份额	-4293
领域中的	-4294
收集和使用	-4295
有着广泛的应用	-4296
危机	-4297
给予	-4298
企业应	-4299
汽车产业	-4300
通信卫星	-4301
位于	-4302
全天	-4303
意外	-4304
手册	-4305
▁设计	-4306
亚马逊	-4307
学习并	-4308
协同作战	-4309
生命周期	-4310
在太空中的	-4311
进一步发展	-4312
机器学习模型	-4313
▁在航空航天领域中	-4314
探险	-4315
都会	-4316
可能是	-4317
相控阵	-4318
也带来了	-4319
其中一项	-4320
能够理解	-4321
产生负面影响	-4322
公路	-4323
看法	-4324
而是	-4325
他们会	-4326
的出现	-4327
的航天	-4328
为了确保	-4329
创新和发展	-4330
提供更多的	-4331
两国	-4332
同样	-4333
确认	-4334
限制了	-4335
保护环境	-4336
数据安全和	-4337
中的作用是什么	-4338
的准确性和效率	-4339
下来	-4340
怎样	-4341
想了解	-4342
的形成	-4343
规则和	-4344
鲁棒性	-4345
市场竞争	-4346
这个问题	-4347
严格的安全	-4348
计算机科学	-4349
识别和理解	-4350
叶片	-4351
延误	-4352
开源	-4353
本土	-4354
他们在	-4355
信号的	-4356
医学影像	-4357
垂直起降	-4358
学习和优化	-4359
中断	-4360
信贷	-4361
涂层	-4362
特色	-4363
技术上	-4364
检查和	-4365
其他车辆	-4366
医疗保健	-4367
积极的影响	-4368
AC	-4369
▁中	-4370
乘坐	-4371
助力	-4372
补充	-4373
信息化	-4374
提到了	-4375
艺术品	-4376
设计出	-4377
北斗系统	-4378
社会责任	-4379
神经网络的	-4380
智能家居系统	-4381
II	-4382
的国际	-4383
的策略	-4384
不断提高	-4385
法律规定	-4386
太空探索和	-4387
每个学生的学习	-4388
ut	-4389
三是	-4390
互联	-4391
性别	-4392
电网	-4393
发射和	-4394
交通事故	-4395
空中加油	-4396
的伦理问题	-4397
随着技术的不断发展	-4398
ab	-4399
其对	-4400
强调了	-4401
哪些具体	-4402
太空任务	-4403
航天科学	-4404
▁能否详细	-4405
提供了强大的	-4406
二手	-4407
助理	-4408
商务	-4409
文字	-4410
梦想	-4411
深海	-4412
聚焦	-4413
人造卫星	-4414
可以提升	-4415
竞争对手	-4416
有哪些具体	-4417
SS	-4418
学家	-4419
收藏	-4420
链路	-4421
和设备	-4422
比亚迪	-4423
研究院	-4424
ICAO	-4425
的数据集	-4426
积极参与	-4427
航空母舰	-4428
气候变化的	-4429
航天器和卫星	-4430
通过深度学习	-4431
记忆	-4432
和军事	-4433
实践中	-4434
过程的	-4435
中的地位	-4436
技术上的	-4437
可能会受到	-4438
ve	-4439
之后	-4440
宣传	-4441
年龄	-4442
添加	-4443
。19	-4444
攻关	-4445
版本	-4446
▁太空	-4447
为全球	-4448
了新的	-4449
保证了	-4450
水平和	-4451
的选择	-4452
专业人士	-4453
支持向量	-4454
伦理和法律问题	-4455
分支	-4456
炸弹	-4457
来确保	-4458
模拟器	-4459
氧化物	-4460
建立一个	-4461
感知能力	-4462
深入研究	-4463
长时间的	-4464
本书	-4465
猎鹰	-4466
和碳排放	-4467
情报收集	-4468
系统集成	-4469
黑客攻击	-4470
区分	-4471
附近	-4472
你需要	-4473
可视化	-4474
接受度	-4475
服务和	-4476
飞行时	-4477
不断提升	-4478
作为一名	-4479
宇宙探索	-4480
能够处理	-4481
一定程度上	-4482
的应用场景	-4483
基础设施建设	-4484
文档	-4485
重于	-4486
制定了	-4487
发现和	-4488
在火星	-4489
的一个	-4490
1969	-4491
ensor	-4492
采用先进的	-4493
博物	-4494
审批	-4495
旋翼	-4496
陆基	-4497
博物馆	-4498
工作中	-4499
成本控制	-4500
机器学习算法来	-4501
VR	-4502
考试	-4503
能效	-4504
发射的	-4505
人力成本	-4506
战斗机在	-4507
的发展历程	-4508
▁W	-4509
后期	-4510
巡逻	-4511
打破	-4512
批量	-4513
网络的	-4514
▁这些都是	-4515
载人航天工程	-4516
AlphaGo	-4517
▁人工智能可以通过多种方式	-4518
出台	-4519
刺激	-4520
消除	-4521
瓶颈	-4522
突然	-4523
门槛	-4524
逼真的	-4525
可能无法	-4526
语言模型	-4527
它可以帮助	-4528
售后	-4529
涡扇	-4530
职责	-4531
颗粒	-4532
▁评估	-4533
敏感信息	-4534
飞行性能	-4535
的安全性能	-4536
轻量化材料	-4537
分散	-4538
微软	-4539
真实的	-4540
2000	-4541
历史数据	-4542
正在改变	-4543
能够迅速	-4544
能够进行	-4545
计算资源	-4546
坚实的基础	-4547
提高飞机的	-4548
人工智能伦理	-4549
和机器学习技术	-4550
虚拟现实和增强现实	-4551
气囊	-4552
约束	-4553
绘画	-4554
目的是	-4555
控制技术	-4556
预测结果	-4557
飞行员在	-4558
▁请举例说明	-4559
可靠性和安全性	-4560
亿美元	-4561
模块化	-4562
的规定	-4563
航天事业	-4564
岩石	-4565
担忧	-4566
鱼雷	-4567
有机会	-4568
风险的	-4569
飞行和	-4570
提高生产效率和	-4571
人工智能可以通过分析大量的	-4572
微波	-4573
和战略	-4574
波音公司	-4575
航天技术的	-4576
友好	-4577
快门	-4578
准确度	-4579
实力和	-4580
等方法	-4581
有何意义	-4582
构成威胁	-4583
短时间内	-4584
自然语言处理和	-4585
CT	-4586
ma	-4587
回报	-4588
演习	-4589
给出	-4590
认可	-4591
成功率	-4592
检测到	-4593
为了解决	-4594
应急响应	-4595
台湾	-4596
名为	-4597
大约	-4598
至少	-4599
的系统	-4600
更强大的	-4601
生活方式	-4602
个性化推荐	-4603
可以有效地	-4604
历史和	-4605
营销策略	-4606
覆盖范围	-4607
七号	-4608
为您	-4609
图片	-4610
投送	-4611
表演	-4612
低成本	-4613
体系的	-4614
是实现	-4615
来保护	-4616
潜力和	-4617
遇到的	-4618
▁在汽车	-4619
城市规划	-4620
大规模的	-4621
五代	-4622
新技术的	-4623
服务质量	-4624
资源分配	-4625
▁强化学习	-4626
标志着中国	-4627
航空航天工程中的	-4628
可信	-4629
大战	-4630
曝光	-4631
演变	-4632
特种	-4633
火箭技术	-4634
生成对抗	-4635
不同类型的	-4636
的工作原理	-4637
包括以下几个方面	-4638
ay	-4639
学者	-4640
尤为	-4641
电源	-4642
以上的	-4643
市场中	-4644
人类首次	-4645
医疗诊断	-4646
开发新的	-4647
游戏角色	-4648
能力的提升	-4649
随着技术的进步	-4650
各类	-4651
提问	-4652
看待	-4653
赔偿	-4654
还为	-4655
作物的	-4656
和影响	-4657
艺术和	-4658
需要有	-4659
从而影响	-4660
DeepMind	-4661
产量	-4662
较小	-4663
发射场	-4664
国产化	-4665
来确定	-4666
军事防御	-4667
AD	-4668
PC	-4669
▁3	-4670
奥秘	-4671
年前	-4672
废气	-4673
建成	-4674
摩擦	-4675
有力	-4676
极其	-4677
世纪初	-4678
国内外	-4679
完善的	-4680
对敌方	-4681
授权的	-4682
是基于	-4683
关键因素	-4684
能源使用	-4685
运营效率	-4686
需要根据	-4687
需要采取	-4688
▁总而言之	-4689
法规和标准	-4690
军的	-4691
以便在	-4692
可以被	-4693
▁无人机	-4694
模拟人类	-4695
这涉及到	-4696
等多个方面	-4697
人工智能的使用	-4698
停机	-4699
力度	-4700
功耗	-4701
民航组织	-4702
直升机的	-4703
▁人工智能与	-4704
▁s	-4705
塑料	-4706
备份	-4707
巴基	-4708
的全	-4709
节约	-4710
黑箱	-4711
(19	-4712
和太空	-4713
对飞机	-4714
巴基斯坦	-4715
智能制造	-4716
系统故障	-4717
高温合金	-4718
▁希望这些	-4719
可能会带来	-4720
克服这些挑战	-4721
▁为	-4722
舱内	-4723
机场的	-4724
民航局	-4725
货运飞船	-4726
AB	-4727
以色	-4728
众多	-4729
西方	-4730
son	-4731
▁in	-4732
以色列	-4733
和进步	-4734
并遵守	-4735
管理中	-4736
▁另一个	-4737
飞行任务	-4738
带来了许多	-4739
崛起	-4740
筛选	-4741
给我	-4742
出色的	-4743
在航空	-4744
完成后	-4745
宝贵的	-4746
语言的	-4747
全方位的	-4748
可以更好地	-4749
收集和处理	-4750
好奇	-4751
少的	-4752
恐怖	-4753
纪录	-4754
配套	-4755
污染物	-4756
激发了	-4757
智能客服	-4758
特征提取	-4759
系统设计	-4760
复杂的问题	-4761
将更加注重	-4762
需要大量的数据	-4763
军备	-4764
此次	-4765
泄漏	-4766
部队的	-4767
提供更准确的	-4768
航空航天科技的发展	-4769
构型	-4770
难点	-4771
在中国	-4772
在各种	-4773
潜在风险	-4774
稳定运行	-4775
还有哪些	-4776
使我们能够	-4777
制定和执行	-4778
技术的突破	-4779
生成对抗网络	-4780
信心	-4781
员会	-4782
女性	-4783
导向	-4784
液氧	-4785
600	-4786
▁环保	-4787
习惯和	-4788
和完善	-4789
和方法	-4790
复杂和	-4791
技术与	-4792
的产品	-4793
造成了	-4794
地球轨道	-4795
应对各种	-4796
这可能会导致	-4797
一大	-4798
前提	-4799
后勤	-4800
国外	-4801
在高	-4802
等等	-4803
▁在中国	-4804
▁考虑到	-4805
智能交通	-4806
更加注重	-4807
南海	-4808
聚类	-4809
得益于	-4810
每一个	-4811
能够更	-4812
转换为	-4813
团队协作	-4814
重大意义	-4815
具有重要的	-4816
显著提升了	-4817
行业的应用	-4818
公正性	-4819
压力和	-4820
的有效	-4821
分享一些	-4822
宇宙中的	-4823
Si	-4824
取消	-4825
打开	-4826
螺旋	-4827
还能够	-4828
性和可靠性	-4829
-9	-4830
37	-4831
举办	-4832
何时	-4833
进口	-4834
革新	-4835
首飞	-4836
使其成为	-4837
游戏设计	-4838
美国海军	-4839
ID	-4840
各地	-4841
这类	-4842
多个方面	-4843
最新进展	-4844
相互作用	-4845
轰炸机的	-4846
进行评估	-4847
▁航空航天产业	-4848
导航和控制系统	-4849
军方	-4850
结束	-4851
要素	-4852
控制的	-4853
最适合	-4854
重量和	-4855
共同努力	-4856
生成新的	-4857
航空旅行	-4858
防护措施	-4859
和技术创新	-4860
太平	-4861
用车	-4862
起落	-4863
伦理道德	-4864
卫星导航	-4865
因为它们	-4866
如何保护	-4867
租车	-4868
邮件	-4869
太平洋	-4870
来提升	-4871
严格遵守	-4872
为未来的	-4873
医疗领域	-4874
如何进行	-4875
的关键因素	-4876
航空航天行业中	-4877
失误	-4878
和实践	-4879
的原因	-4880
中的重要	-4881
充分考虑	-4882
军事战略	-4883
作出	-4884
发电	-4885
水面	-4886
行走	-4887
加强对	-4888
多样化	-4889
研制的	-4890
装备了	-4891
深入了解	-4892
数据科学家	-4893
梦天实验舱	-4894
发挥着重要作用	-4895
个体	-4896
学会	-4897
-21	-4898
不仅仅	-4899
在这些	-4900
帮助教师	-4901
智慧城市	-4902
激光武器	-4903
,“	-4904
尽力	-4905
欢迎	-4906
测绘	-4907
物品	-4908
安全带	-4909
法规和	-4910
目标检测	-4911
行为模式	-4912
不仅提高了	-4913
还可以帮助	-4914
提供定制化的	-4915
▁航空航天行业	-4916
▁9	-4917
公约	-4918
并对	-4919
一致性	-4920
推力和	-4921
时间的	-4922
精确度	-4923
▁请注意	-4924
先进水平	-4925
具体来说	-4926
客户体验	-4927
Ch	-4928
un	-4929
如使用	-4930
是全球	-4931
中的使用	-4932
教育资源	-4933
语音指令	-4934
可能会影响	-4935
减少人为错误	-4936
匣子	-4937
培育	-4938
星座	-4939
由谁	-4940
风速	-4941
以促进	-4942
知识的	-4943
高科技	-4944
黑匣子	-4945
rans	-4946
存在一些	-4947
模式识别	-4948
进行分析	-4949
飞行器和	-4950
人性	-4951
关闭	-4952
区的	-4953
嵌入	-4954
开辟	-4955
病历	-4956
告诉我	-4957
控系统	-4958
国际社会	-4959
更加便捷	-4960
电磁弹射	-4961
航天任务	-4962
预防措施	-4963
维护和检查	-4964
▁以上就是一些	-4965
有着重要的影响	-4966
捕获	-4967
细胞	-4968
参与到	-4969
图像中的	-4970
诊断疾病	-4971
如何影响了	-4972
47	-4973
ss	-4974
华为	-4975
有了	-4976
缺点	-4977
阿尔	-4978
▁定期	-4979
可能在	-4980
图像的	-4981
等设备	-4982
Flow	-4983
为了应对	-4984
将有助于	-4985
决策过程中	-4986
审核	-4987
合作的	-4988
对经济	-4989
将能够	-4990
伦理准则	-4991
支持向量机	-4992
混合动力汽车	-4993
保密	-4994
实用	-4995
脉冲	-4996
计划的	-4997
中提到的	-4998
从而提前	-4999
嫦娥四号	-5000
自动驾驶技术的	-5001
AM	-5002
主流	-5003
助推	-5004
孩子	-5005
理工	-5006
较为	-5007
人们对	-5008
所有的	-5009
智能体	-5010
还推动了	-5011
飞行操作	-5012
系统的性能	-5013
飞机和航天器的	-5014
航空航天技术的应用	-5015
▁p	-5016
低于	-5017
儿童	-5018
思路	-5019
锁定	-5020
长远	-5021
首个	-5022
ork	-5023
构成了	-5024
出现故障	-5025
能够承受	-5026
神经网络模型	-5027
安全性和可靠性	-5028
我们的日常生活	-5029
换电	-5030
查询	-5031
职位	-5032
300	-5033
护卫舰	-5034
共同推动	-5035
发挥作用	-5036
最佳实践	-5037
的关键技术	-5038
IT	-5039
未能	-5040
可以更	-5041
当前的	-5042
有任何	-5043
电动化	-5044
超声速	-5045
2019	-5046
市场上的	-5047
法律框架	-5048
和智能化的	-5049
氢燃料电池	-5050
提高燃油效率	-5051
即时	-5052
试图	-5053
会影响	-5054
保护和	-5055
发展和	-5056
教育机构	-5057
舰载机的	-5058
太空望远镜	-5059
有何重要意义	-5060
很难	-5061
全球的	-5062
控制与	-5063
驱动的	-5064
疾病诊断	-5065
这些算法	-5066
数字化转型	-5067
飞行器设计	-5068
循环神经网络	-5069
思想	-5070
在国防	-5071
温度和	-5072
空中的	-5073
训练中	-5074
医疗健康	-5075
可以用来	-5076
并与	-5077
中心的	-5078
在拍摄	-5079
审查和	-5080
挑战是	-5081
能够从	-5082
获得了	-5083
器件	-5084
海域	-5085
穿透	-5086
以获得	-5087
噪音和	-5088
技术进行	-5089
结构强度	-5090
UV	-5091
单一	-5092
哪种	-5093
无缝	-5094
青少	-5095
高达	-5096
科学和	-5097
包括使用	-5098
这些设备	-5099
个性化学习	-5100
开发和应用	-5101
的影响主要体现在以下几个方面	-5102
玻璃	-5103
者和	-5104
核武器	-5105
让他们	-5106
各个领域	-5107
深空探索	-5108
环境因素	-5109
大量的就业机会	-5110
击败	-5111
电路	-5112
警报	-5113
沟通和	-5114
耐用性	-5115
供应链的	-5116
已经开始	-5117
市场竞争力	-5118
极高	-5119
水和	-5120
评分	-5121
退役	-5122
055	-5123
包括对	-5124
在哪些	-5125
运行的	-5126
form	-5127
▁未来的	-5128
世界大战	-5129
刹车系统	-5130
方面有何	-5131
通过学习	-5132
温室气体排放	-5133
人工智能在军事	-5134
伦理和道德问题	-5135
多层	-5136
如此	-5137
问答	-5138
▁of	-5139
▁进行	-5140
对国际	-5141
来应对	-5142
的建议	-5143
在设计上	-5144
可重复使用	-5145
这可以帮助	-5146
AG	-5147
保留	-5148
如下	-5149
种类	-5150
侧重于	-5151
具备了	-5152
完整性	-5153
定制化	-5154
的服务	-5155
还促进了	-5156
多方面的影响	-5157
人工智能可以通过大数据分析	-5158
协助	-5159
学员	-5160
在教育	-5161
多元化	-5162
军民融合	-5163
出现错误	-5164
可以推动	-5165
▁如何评估	-5166
ensorFlow	-5167
▁c	-5168
去除	-5169
残骸	-5170
另一种	-5171
创新应用	-5172
的质量和	-5173
我们可以通过	-5174
主体	-5175
背面	-5176
中具有	-5177
以支持	-5178
内部的	-5179
数据库	-5180
无论是	-5181
机械臂	-5182
模拟和	-5183
突破性	-5184
起落架	-5185
用户隐私	-5186
培养学生的	-5187
海量	-5188
遭遇	-5189
方式和	-5190
1000	-5191
从而帮助	-5192
汽车制造	-5193
这一过程	-5194
▁如何通过	-5195
人类历史上	-5196
显著提高了	-5197
航空航天业	-5198
航空航天局	-5199
前的	-5200
▁卫星	-5201
全天候	-5202
如何与	-5203
有帮助	-5204
也促进了	-5205
可以快速	-5206
还有一些	-5207
▁通过以上	-5208
学习和理解	-5209
巨大的潜力	-5210
的基本原理	-5211
这将有助于	-5212
机器学习方法	-5213
飞行过程中的	-5214
化石燃料的依赖	-5215
在航空航天领域的	-5216
润滑	-5217
行李	-5218
衡量	-5219
风暴	-5220
处理器	-5221
充分利用	-5222
需要使用	-5223
航天领域的	-5224
通过自动化	-5225
人工智能可以自动	-5226
仍能	-5227
四代	-5228
天和	-5229
文明	-5230
液压	-5231
清理	-5232
财产	-5233
▁印度	-5234
更环保	-5235
返回舱	-5236
复杂问题	-5237
能够自动	-5238
强国	-5239
渗透	-5240
病虫	-5241
优秀的	-5242
多模态	-5243
来帮助	-5244
模型和	-5245
的生产	-5246
美国在	-5247
人员伤亡	-5248
研究领域	-5249
空气阻力	-5250
过度依赖	-5251
及时发现并	-5252
深度学习在	-5253
▁请讨论一下	-5254
设计和制造过程中	-5255
MS	-5256
内燃	-5257
援助	-5258
耐用	-5259
-17	-5260
导弹和	-5261
感知和	-5262
病人的	-5263
ning	-5264
▁安全性	-5265
以下措施	-5266
技术支持	-5267
挑战包括	-5268
能够帮助	-5269
以下是一些建议	-5270
它是	-5271
平面	-5272
手动	-5273
癌症	-5274
色彩	-5275
规程	-5276
二手车	-5277
回收和	-5278
的作战	-5279
的贡献	-5280
2016	-5281
▁您认为	-5282
理解和生成	-5283
环保和可持续性	-5284
条约	-5285
检修	-5286
血管	-5287
pen	-5288
▁风险	-5289
了解和	-5290
但同时也	-5291
安全性能	-5292
航天员在	-5293
航空电子	-5294
提供了重要的	-5295
以下是一些常见	-5296
修正	-5297
全部	-5298
回应	-5299
巴巴	-5300
强烈	-5301
面向	-5302
时代的	-5303
目标和	-5304
成为一个	-5305
成功案例	-5306
最大程度	-5307
汽车市场	-5308
职业道德	-5309
有以下几个	-5310
的重要因素	-5311
充足	-5312
容量	-5313
数值	-5314
融资	-5315
装载	-5316
加速度	-5317
可用于	-5318
病虫害	-5319
长距离	-5320
thon	-5321
保持稳定	-5322
正在研发	-5323
研究机构	-5324
▁无人驾驶	-5325
▁航空航天材料的	-5326
素养	-5327
效果和	-5328
非线性	-5329
以减少对	-5330
充电设施	-5331
大数据的	-5332
机械故障	-5333
资金支持	-5334
上述	-5335
之下	-5336
变形	-5337
爱好	-5338
发生的	-5339
2025	-5340
航天器在	-5341
阿里巴巴	-5342
可能会面临	-5343
伦理道德问题	-5344
随着人工智能的发展	-5345
投放	-5346
正则	-5347
▁解决	-5348
他们对	-5349
力量的	-5350
航天活动	-5351
航空航天教育	-5352
降低生产成本	-5353
一样	-5354
两者	-5355
人权	-5356
光照	-5357
文献	-5358
航展	-5359
转弯	-5360
;4)	-5361
原子钟	-5362
性能上	-5363
文化的	-5364
透明的	-5365
氮氧化物	-5366
的背景下	-5367
也可能带来	-5368
进行严格的	-5369
人工智能可以帮助我们	-5370
09	-5371
同意	-5372
样品	-5373
谨慎	-5374
前提下	-5375
和责任	-5376
螺旋桨	-5377
▁请列举	-5378
更精确的	-5379
卫生	-5380
座舱	-5381
忠诚	-5382
经常	-5383
缺失	-5384
马赫	-5385
也使得	-5386
了许多	-5387
以帮助	-5388
功能的	-5389
委员会	-5390
环境对	-5391
造成的	-5392
安全标准	-5393
气象预报	-5394
可能的风险	-5395
航空航天行业的发展	-5396
各项	-5397
四个	-5398
局势	-5399
得以	-5400
热情	-5401
高昂	-5402
ver	-5403
建设和	-5404
交通管理	-5405
哪些因素	-5406
能源管理	-5407
将如何影响	-5408
人工智能可以预测	-5409
初始	-5410
纠纷	-5411
以及与	-5412
以达到	-5413
区域的	-5414
团队的	-5415
往往是	-5416
物体的	-5417
从而提升	-5418
科学依据	-5419
技术和创新	-5420
领域的研究	-5421
提供了更多的	-5422
通过大数据分析	-5423
事项	-5424
千米	-5425
每次	-5426
电话	-5427
矩阵	-5428
私营	-5429
这款	-5430
描述一下	-5431
的安全措施	-5432
运载火箭的	-5433
有哪些重要的	-5434
偏远	-5435
加加	-5436
匿名	-5437
同比	-5438
围绕	-5439
客车	-5440
繁荣	-5441
解读	-5442
避开	-5443
▁可以	-5444
世界的	-5445
加加林	-5446
在发展	-5447
建议您	-5448
有更多	-5449
个性化和	-5450
能够满足	-5451
资金投入	-5452
偏见和歧视	-5453
复合材料和	-5454
有用的信息	-5455
深度学习的	-5456
生物多样性	-5457
电动汽车和	-5458
可能出现的问题	-5459
人工智能可以提供	-5460
ML	-5461
ap	-5462
次数	-5463
记住	-5464
陨石	-5465
在内的	-5466
军备竞赛	-5467
出舱活动	-5468
机器视觉	-5469
科学家和	-5470
进行交互	-5471
命中	-5472
奔驰	-5473
工人	-5474
平稳	-5475
维度	-5476
车内	-5477
辽宁	-5478
隔离	-5479
顾问	-5480
tic	-5481
交流和	-5482
功能和	-5483
团队在	-5484
▁最新的	-5485
具体情况	-5486
制造过程	-5487
发展方向	-5488
导航技术	-5489
政策支持	-5490
更广泛的	-5491
表现如何	-5492
野生动物	-5493
燃油经济性	-5494
等领域的应用	-5495
尾翼	-5496
法和	-5497
航向	-5498
财政	-5499
公司和	-5500
号任务	-5501
大部分	-5502
我们还	-5503
计算和	-5504
飞机时	-5505
医疗数据	-5506
典型	-5507
犯罪	-5508
立体	-5509
红旗	-5510
间接	-5511
随后	-5512
lex	-5513
优化了	-5514
和心理	-5515
安全地	-5516
高效和	-5517
探测器的	-5518
探索太空	-5519
预测分析	-5520
生产过程中	-5521
的效率和质量	-5522
航空航天政策	-5523
处理大量的数据	-5524
人工智能可以提高	-5525
对环境的负面影响	-5526
人工智能也可以用于	-5527
号的	-5528
积分	-5529
组网	-5530
这为	-5531
遥控	-5532
训练的	-5533
▁有没有	-5534
完成任务	-5535
非常广阔	-5536
环境中进行	-5537
虚拟现实技术	-5538
起着至关重要的作用	-5539
87	-5540
享受	-5541
支付	-5542
医疗影像	-5543
快速反应	-5544
战场上的	-5545
成功发射了	-5546
会产生大量的	-5547
可以通过以下几种方式	-5548
哈勃	-5549
应力	-5550
缩小	-5551
▁日本	-5552
常用于	-5553
能够以	-5554
保持冷静	-5555
决策能力	-5556
库存管理	-5557
深度融合	-5558
燃烧效率	-5559
的发展方向	-5560
的工作方式	-5561
防御系统的	-5562
GC	-5563
MR	-5564
St	-5565
中华	-5566
从事	-5567
再入	-5568
额外	-5569
ell	-5570
▁采用	-5571
和宇宙	-5572
最大化	-5573
产业链的	-5574
什么作用	-5575
性和效率	-5576
辅助系统	-5577
取得了显著的	-5578
空中交通管理系统	-5579
但其	-5580
大国	-5581
ESA	-5582
our	-5583
便捷的	-5584
战斗群	-5585
来学习	-5586
类似于	-5587
阶段的	-5588
优势在于	-5589
远程打击	-5590
潜在的安全	-5591
光电	-5592
定价	-5593
尼克	-5594
远洋	-5595
陆地	-5596
▁飞机	-5597
中进行	-5598
人员和	-5599
出租车	-5600
创作出	-5601
清晰的	-5602
可以实时	-5603
实际操作	-5604
提高学习	-5605
确保飞机	-5606
飞行中的	-5607
从而更好地	-5608
解决问题的能力	-5609
句子	-5610
和国	-5611
收益	-5612
查看	-5613
199	-5614
400	-5615
▁强化	-5616
产业化	-5617
和指导	-5618
通常是	-5619
可以减轻	-5620
▁人工智能在军事	-5621
油耗	-5622
精力	-5623
被动	-5624
进化	-5625
量化	-5626
应如何	-5627
农作物的	-5628
可以作为	-5629
地球观测	-5630
最大程度地	-5631
这些技术的	-5632
产能	-5633
冷战	-5634
接下来	-5635
研究者	-5636
策略和	-5637
图像处理	-5638
应对措施	-5639
私人航天	-5640
这项技术	-5641
这可能涉及到	-5642
li	-5643
以此	-5644
作者	-5645
批改	-5646
准确和	-5647
和时间	-5648
的作品	-5649
竞争中	-5650
背后的	-5651
谷歌的	-5652
▁什么是	-5653
造成影响	-5654
太阳能电池	-5655
空中交通管制员	-5656
柴油	-5657
▁空中	-5658
基本的	-5659
改善了	-5660
的温度	-5661
任务需求	-5662
确保数据	-5663
自主创新	-5664
人工智能如何	-5665
人工智能还能	-5666
PU	-5667
传动	-5668
喷射	-5669
提到	-5670
无限	-5671
诞生	-5672
为中国	-5673
原材料	-5674
摄影师	-5675
他们需要	-5676
损失函数	-5677
显著影响	-5678
针对性的	-5679
分析和预测	-5680
科技的进步	-5681
智能网联汽车	-5682
通过收集和分析	-5683
使用人工智能进行	-5684
LE	-5685
专用	-5686
专项	-5687
律师	-5688
朝着	-5689
权限	-5690
的历史	-5691
范围和	-5692
请随时	-5693
交通方式	-5694
减少了对	-5695
可以采用	-5696
生命支持	-5697
的自动化	-5698
可能会遇到	-5699
相关法律法规	-5700
人工智能可以自动化	-5701
CO	-5702
MA	-5703
仔细	-5704
优于	-5705
热点	-5706
和经验	-5707
是中国	-5708
的知识	-5709
交通工具	-5710
就业问题	-5711
▁如何评价	-5712
飞行员需要	-5713
人工智能领域	-5714
ot	-5715
了对	-5716
加热	-5717
变速	-5718
情境	-5719
▁再次	-5720
参与者	-5721
和反馈	-5722
燃烧室	-5723
监视和	-5724
经济和	-5725
这本书	-5726
用户数据	-5727
航空燃料	-5728
使用先进的	-5729
的应用领域	-5730
、“	-5731
图谱	-5732
某个	-5733
并做出	-5734
特点和	-5735
的结合	-5736
车辆在	-5737
健康管理	-5738
故障诊断	-5739
相比之下	-5740
运载能力	-5741
需要克服	-5742
飞行控制	-5743
提供了重要	-5744
在人工智能领域	-5745
领域的应用非常广泛	-5746
In	-5747
——	-5748
休息	-5749
教练	-5750
滤清	-5751
种族	-5752
萎缩	-5753
预设	-5754
与应用	-5755
排放的	-5756
新型的	-5757
服务于	-5758
生命的	-5759
产业升级	-5760
工作机会	-5761
航母编队	-5762
语义理解	-5763
随机森林	-5764
航空航天企业	-5765
做出了重要贡献	-5766
相关的法律法规	-5767
航空航天技术在军事	-5768
交换	-5769
过于	-5770
充电桩	-5771
几年内	-5772
小时的	-5773
开发了	-5774
收集到	-5775
能有效	-5776
交通规则	-5777
具体而言	-5778
生产过程中的	-5779
解决这些问题	-5780
▁航空航天科技	-5781
见解	-5782
具有高	-5783
层次的	-5784
智能和	-5785
火箭和	-5786
生物学	-5787
系统会	-5788
ence	-5789
制造业的	-5790
各个方面	-5791
新的技术	-5792
可以从以下几个方面	-5793
三大	-5794
地下	-5795
复制	-5796
涂装	-5797
试错	-5798
风云	-5799
任务和	-5800
和演化	-5801
复杂度	-5802
实用性	-5803
被用来	-5804
安全管理	-5805
应该如何	-5806
关键的作用	-5807
在全球范围内	-5808
飞行器的设计	-5809
IN	-5810
动物	-5811
时候	-5812
制定出	-5813
合作和	-5814
地球上	-5815
电池的	-5816
角度和	-5817
也会影响	-5818
更高效地	-5819
迁移学习	-5820
具有良好的	-5821
生存能力和	-5822
设计和优化	-5823
um	-5824
之外	-5825
低速	-5826
声誉	-5827
对待	-5828
微小	-5829
替换	-5830
青年	-5831
ter	-5832
▁如果	-5833
对教育	-5834
来调整	-5835
研究所	-5836
计划中	-5837
公正性和	-5838
定位精度	-5839
维护成本	-5840
能够适应	-5841
这种方式	-5842
失控	-5843
官方	-5844
整理	-5845
加强与	-5846
和人类	-5847
形状和	-5848
极大的	-5849
航班的	-5850
解释性	-5851
超参数	-5852
和自动化	-5853
伦理和法律	-5854
智能化水平	-5855
Python	-5856
国际民航组织	-5857
惯性导航系统	-5858
中继	-5859
借助	-5860
储备	-5861
因其	-5862
篡改	-5863
约为	-5864
为我国	-5865
行星的	-5866
商业领域	-5867
可以更准确地	-5868
在人工智能中的	-5869
灵感	-5870
话题	-5871
赛事	-5872
-18	-5873
创造力	-5874
吸引力	-5875
对军事	-5876
应用是	-5877
很大的	-5878
计算能力	-5879
飞行高度	-5880
▁作为一名	-5881
火星探测器	-5882
事务	-5883
含义	-5884
图形	-5885
垄断	-5886
开采	-5887
性价	-5888
负载	-5889
资质	-5890
▁作为	-5891
和速度	-5892
在特定	-5893
完整的	-5894
对航空	-5895
来改善	-5896
简单的	-5897
气象卫星	-5898
伦理问题的	-5899
可持续发展的	-5900
极大地推动了	-5901
主要有以下几点	-5902
大会	-5903
练习	-5904
远超	-5905
海军的	-5906
驾驶的	-5907
▁近年来	-5908
及时调整	-5909
响应速度	-5910
这个过程	-5911
ue	-5912
博士	-5913
厂商	-5914
就能	-5915
拓宽	-5916
等多	-5917
车主	-5918
▁In	-5919
以获取	-5920
侦察机	-5921
充分的	-5922
国家或	-5923
在发射	-5924
政府的	-5925
2023	-5926
对于提高	-5927
对未来的	-5928
异常行为	-5929
无人机等	-5930
模拟人脑	-5931
科研成果	-5932
设备进行	-5933
推进系统的	-5934
进一步推动	-5935
微型	-5936
重建	-5937
防灾	-5938
陀螺	-5939
SUV	-5940
发布的	-5941
影响的	-5942
推出了	-5943
最大限	-5944
work	-5945
也在不断	-5946
人员进行	-5947
从而推动	-5948
农业生产	-5949
多样化的	-5950
消费者对	-5951
登陆月球	-5952
节能减排	-5953
预测疾病	-5954
和研究机构	-5955
对人类社会	-5956
维护和修复	-5957
国际航空航天	-5958
CS	-5959
北约	-5960
反向	-5961
它将	-5962
瞄准	-5963
选拔	-5964
量产	-5965
我认为	-5966
灵活的	-5967
部署和	-5968
反应速度	-5969
是否存在	-5970
识别技术	-5971
不仅提升了	-5972
新的技术和	-5973
人工智能可以在	-5974
RO	-5975
▁X	-5976
乘员	-5977
射击	-5978
自卫	-5979
自行	-5980
不稳定	-5981
倾向于	-5982
的位置	-5983
的制定	-5984
任务中的	-5985
有限公司	-5986
空间探索	-5987
适应性和	-5988
乘客的安全	-5989
27	-5990
哥伦	-5991
防火	-5992
▁绿色	-5993
发生了	-5994
周围的	-5995
广阔的	-5996
教育中	-5997
正则化	-5998
作战半径	-5999
航天器设计	-6000
语音识别系统	-6001
学生的学习情况	-6002
人工智能的伦理问题	-6003
86	-6004
有些	-6005
讲座	-6006
骨质	-6007
gin	-6008
创造性	-6009
和趋势	-6010
性价比	-6011
和安全性	-6012
智能汽车	-6013
耐腐蚀性	-6014
进行优化	-6015
驾驶员的	-6016
航母战斗群	-6017
航空航天制造	-6018
预测市场趋势	-6019
数据隐私和安全	-6020
随着科技的发展	-6021
26	-6022
东方	-6023
多数	-6024
常用	-6025
开拓	-6026
高能	-6027
在训练	-6028
有几种	-6029
青少年	-6030
北斗三号	-6031
已经成为	-6032
理论知识	-6033
金属材料	-6034
原型	-6035
召回	-6036
感到	-6037
激活	-6038
燃气	-6039
编写	-6040
多用途	-6041
空军在	-6042
表现出	-6043
识别并	-6044
从数据中	-6045
探月工程	-6046
有何优势	-6047
有害物质	-6048
环保问题	-6049
提供一些关于	-6050
以下是一些例子	-6051
"(	-6052
SV	-6053
▁长	-6054
便于	-6055
命令	-6056
尤里	-6057
抵抗	-6058
条例	-6059
繁琐	-6060
走势	-6061
其中的	-6062
存在的	-6063
特尼克	-6064
维护与	-6065
该系统	-6066
也被用于	-6067
哥伦比亚	-6068
技术方面	-6069
最大限度	-6070
这一目标	-6071
atson	-6072
▁以上只是	-6073
制定和实施	-6074
更好的决策	-6075
主权	-6076
兴奋	-6077
斯普	-6078
直径	-6079
赋能	-6080
风能	-6081
实现更	-6082
对现代	-6083
并将其	-6084
的进步	-6085
的通信	-6086
结合了	-6087
预防和	-6088
月球基地	-6089
生态环境	-6090
在实际应用中	-6091
的影响是什么	-6092
希望对你有所帮助	-6093
前所	-6094
医院	-6095
显示了	-6096
火箭炮	-6097
投资建议	-6098
提供支持	-6099
月球表面	-6100
身体健康	-6101
这些模型	-6102
采取哪些	-6103
处理大量数据	-6104
前所未	-6105
著名的	-6106
持续改进	-6107
提供实时	-6108
气动性能	-6109
潜在威胁	-6110
突发情况	-6111
任务的成功	-6112
提供了一个	-6113
有许多应用	-6114
的工作负担	-6115
相控阵雷达	-6116
▁K	-6117
合格	-6118
禁止	-6119
克服了	-6120
和模型	-6121
在执行	-6122
控制器	-6123
操作的	-6124
状态下	-6125
伦理原则	-6126
航电系统	-6127
人工智能将	-6128
导航和定位	-6129
人工智能技术的应用	-6130
▁d	-6131
几年	-6132
动能	-6133
增压	-6134
如在	-6135
火炮	-6136
电能	-6137
▁实施	-6138
兼容性	-6139
推进器	-6140
结构化	-6141
较大的	-6142
流体力学	-6143
生命保障	-6144
理解和处理	-6145
有价值的信息	-6146
随着科技的进步	-6147
56	-6148
供给	-6149
哪个	-6150
热量	-6151
种植	-6152
▁确保	-6153
使机器	-6154
揭示了	-6155
研究与	-6156
▁请总结	-6157
各种任务	-6158
挑战性的	-6159
金融行业	-6160
天和核心舱	-6161
材料和技术	-6162
空间站建设	-6163
稳定性和可靠性	-6164
AV	-6165
处置	-6166
景象	-6167
还应	-6168
和利用	-6169
和训练	-6170
工程学	-6171
最小化	-6172
解放军	-6173
提供更多	-6174
科研机构	-6175
精确控制	-6176
自主驾驶	-6177
重要角色	-6178
的艺术作品	-6179
图像识别技术	-6180
需要注意的是	-6181
航空航天法律和政策	-6182
DP	-6183
从业	-6184
机上	-6185
滑翔	-6186
牛顿	-6187
现状	-6188
航拍	-6189
试点	-6190
太空站	-6191
显示出	-6192
航空兵	-6193
长期的	-6194
风险和	-6195
售后服务	-6196
能够提高	-6197
挑战是什么	-6198
机组人员的	-6199
欧洲航天局	-6200
也是一个挑战	-6201
数据隐私保护	-6202
做出更明智的决策	-6203
健全	-6204
所在	-6205
而在	-6206
轻松	-6207
部的	-6208
其他国家	-6209
的安全运行	-6210
ht	-6211
互补	-6212
开创	-6213
正面	-6214
远离	-6215
ook	-6216
▁实时	-6217
会进行	-6218
减轻了	-6219
来改进	-6220
技术手段	-6221
潜在影响	-6222
科研项目	-6223
重复使用	-6224
飞行计划	-6225
具体的例子	-6226
可以应用于	-6227
稳定性和安全性	-6228
个月	-6229
入侵	-6230
士兵	-6231
封闭	-6232
巨头	-6233
▁关于	-6234
公正和	-6235
机组成	-6236
比赛中	-6237
测试中	-6238
2030	-6239
可以增加	-6240
国际贸易	-6241
必须遵守	-6242
月球探测	-6243
深入理解	-6244
登上月球	-6245
这是因为	-6246
中国空军的	-6247
历史数据和	-6248
"。	-6249
亚洲	-6250
海拔	-6251
病情	-6252
阻止	-6253
预先	-6254
为后续	-6255
以提供	-6256
以确定	-6257
有很大	-6258
级别的	-6259
而无需	-6260
过去的	-6261
可以优化	-6262
基础理论	-6263
载人登月	-6264
研究和应用	-6265
能够准确地	-6266
▁计算机视觉	-6267
制定更有效的	-6268
基金	-6269
抵御	-6270
注册	-6271
直到	-6272
▁自动	-6273
天体的	-6274
飞机或	-6275
减少浪费	-6276
发射任务	-6277
可以大大	-6278
飞行时间	-6279
人才的培养	-6280
斯普特尼克	-6281
45	-6282
CR	-6283
劣势	-6284
大力	-6285
弥补	-6286
或不	-6287
极限	-6288
考核	-6289
订单	-6290
与地球	-6291
可能被	-6292
对人体	-6293
的目的	-6294
二战期间	-6295
可能面临	-6296
实际情况	-6297
机器人在	-6298
的研究和	-6299
这些方法	-6300
很大程度上	-6301
无监督学习	-6302
航空领域的	-6303
使用可再生能源	-6304
SA	-6305
停止	-6306
气球	-6307
鉴于	-6308
ISO	-6309
了大量	-6310
和相关	-6311
场景下	-6312
的国家	-6313
▁Net	-6314
▁这些是	-6315
提供新的	-6316
进行实时	-6317
长征五号	-6318
市场的发展	-6319
ransform	-6320
随着人工智能技术的发展	-6321
想要	-6322
提示	-6323
搭建	-6324
火山	-6325
成功将	-6326
更多地	-6327
模式的	-6328
美国和	-6329
设备等	-6330
如果一个	-6331
身份验证	-6332
这将如何影响	-6333
ck	-6334
他是	-6335
公斤	-6336
推断	-6337
热门	-6338
讲解	-6339
制造的	-6340
学习的	-6341
工作者	-6342
开发中	-6343
心血管	-6344
技术或	-6345
物流和	-6346
自主性	-6347
较低的	-6348
驾驶者	-6349
Siri	-6350
存在哪些	-6351
它可以用于	-6352
对环境保护	-6353
ul	-6354
▁J	-6355
击落	-6356
多变	-6357
是最	-6358
矢量	-6359
从而为	-6360
和地面	-6361
定期对	-6362
可以为您	-6363
大幅提升	-6364
数字化和	-6365
显著进展	-6366
火星探索	-6367
知识图谱	-6368
重要应用	-6369
从而提高了	-6370
战略轰炸机	-6371
的风险管理	-6372
降低碳排放	-6373
飞行安全和	-6374
提高工作效率	-6375
▁如何利用人工智能技术	-6376
亚太	-6377
运送	-6378
预案	-6379
乘用车	-6380
以优化	-6381
制造出	-6382
在实战	-6383
Alex	-6384
实际问题	-6385
抗干扰能力	-6386
科学研究和	-6387
空间站的建设	-6388
earning	-6389
人口	-6390
扩散	-6391
教训	-6392
本地	-6393
负荷	-6394
▁当前	-6395
▁您好	-6396
和算法	-6397
品牌的	-6398
搭载的	-6399
合作关系	-6400
航空器和	-6401
以确保他们	-6402
人工智能应用	-6403
我们对宇宙的	-6404
随着环保意识	-6405
人工智能可以分析	-6406
23	-6407
不利	-6408
中央	-6409
中美	-6410
心脏	-6411
路面	-6412
还需	-6413
陆军	-6414
也会对	-6415
使用者	-6416
和战术	-6417
开启了	-6418
的地理	-6419
非常高	-6420
预训练	-6421
▁在未来	-6422
主要应用	-6423
反导系统	-6424
满意度和	-6425
理工学院	-6426
通过建立	-6427
在医疗领域	-6428
环保领域的	-6429
▁以上就是人工智能在	-6430
扩张	-6431
近地	-6432
遭受	-6433
抗腐蚀	-6434
的综合	-6435
颗卫星	-6436
对全球经济	-6437
▁b	-6438
外交	-6439
高于	-6440
创新性	-6441
空间的	-6442
软着陆	-6443
高度和	-6444
也有助于	-6445
汽车安全	-6446
先进的技术	-6447
市场的竞争	-6448
最大限度地	-6449
武器系统的	-6450
采用了先进的	-6451
先驱	-6452
刚度	-6453
持久	-6454
-11	-6455
发现了	-6456
和攻击	-6457
小部分	-6458
为了提高	-6459
使得人们	-6460
减少人工	-6461
出行方式	-6462
可以选择	-6463
的数据进行	-6464
全球气候变化	-6465
随着人工智能技术的	-6466
TensorFlow	-6467
EO	-6468
在不	-6469
武装	-6470
汽油	-6471
公平和	-6472
和任务	-6473
和系统	-6474
和肌肉	-6475
满足了	-6476
管理的	-6477
不可忽视	-6478
前景如何	-6479
发生事故	-6480
有何贡献	-6481
不断变化的	-6482
成为第一个	-6483
维护和修理	-6484
具有重大意义	-6485
在航空航天领域中	-6486
航空航天领域的发展	-6487
并将	-6488
彗星	-6489
表情	-6490
-27	-6491
不会对	-6492
的控制	-6493
的概念	-6494
的预测	-6495
介绍一些	-6496
位置信息	-6497
发现新的	-6498
排放标准	-6499
新的挑战	-6500
独特优势	-6501
目标进行	-6502
atGPT	-6503
设计和测试	-6504
不得	-6505
福建	-6506
至今	-6507
赋予	-6508
▁当谈	-6509
下一代	-6510
月球的	-6511
等进行	-6512
学习能力	-6513
异常情况	-6514
提供了更	-6515
教学方法	-6516
社会问题	-6517
通过调整	-6518
做出更准确	-6519
变得越来越	-6520
直接影响到	-6521
EM	-6522
PA	-6523
几何	-6524
已知	-6525
离开	-6526
几十年	-6527
可以与	-6528
的地质	-6529
算法在	-6530
能够为	-6531
规范和	-6532
做出贡献	-6533
国际竞争力	-6534
无人机进行	-6535
深度神经网络	-6536
IC	-6537
件的	-6538
候选	-6539
切换	-6540
办公	-6541
命名	-6542
课堂	-6543
ity	-6544
中使用	-6545
中提取	-6546
优化和	-6547
农作物	-6548
和航天	-6549
对这些	-6550
特性和	-6551
风格和	-6552
提高诊断	-6553
有效载荷	-6554
成功进行了	-6555
颗人造卫星	-6556
中国航空工业	-6557
前景非常广阔	-6558
无人驾驶飞机	-6559
▁(	-6560
农田	-6561
台风	-6562
洪水	-6563
蛋白	-6564
车轮	-6565
的内容	-6566
记录和	-6567
先进技术	-6568
关键步骤	-6569
文本分类	-6570
自主可控	-6571
宇宙的奥秘	-6572
预测和决策	-6573
智能家居设备	-6574
的影响是深远的	-6575
自动化和智能化	-6576
语音识别和自然语言处理	-6577
升空	-6578
头盔	-6579
彻底	-6580
液态	-6581
生涯	-6582
疑问	-6583
窗口	-6584
翼型	-6585
防控	-6586
ach	-6587
并使用	-6588
指的是	-6589
民航业	-6590
人为因素	-6591
在线课程	-6592
尤为重要	-6593
美国国家	-6594
货物运输	-6595
定位和导航	-6596
工业自动化	-6597
技术的创新	-6598
能够有效地	-6599
有机	-6600
柔性	-6601
检索	-6602
盟友	-6603
编辑	-6604
▁减少	-6605
客机的	-6606
帮助你	-6607
情感和	-6608
关键信息	-6609
如何使用	-6610
应该由谁	-6611
的环境中	-6612
科技集团	-6613
行业中的	-6614
还有许多	-6615
作用是什么	-6616
中发挥了重要作用	-6617
领域的应用有哪些	-6618
抽象	-6619
适用	-6620
为未来	-6621
及时的	-6622
发射了	-6623
可以说	-6624
挑战性	-6625
颗粒物	-6626
验证了	-6627
可以分析	-6628
品牌形象	-6629
在未来的	-6630
数据质量	-6631
创新和突破	-6632
识别和分类	-6633
不良	-6634
为例	-6635
乘务	-6636
准入	-6637
含量	-6638
填补	-6639
定向	-6640
规避	-6641
上下游	-6642
为他们	-6643
作战中	-6644
分析等	-6645
安全与	-6646
您认为	-6647
来处理	-6648
的专业	-6649
的运行	-6650
什么样的	-6651
回收利用	-6652
安全风险	-6653
汽车设计	-6654
首先需要	-6655
▁风险管理	-6656
具有更高的	-6657
有着重要的	-6658
飞机的飞行	-6659
飞行员培训	-6660
在航空航天工程中	-6661
im	-6662
卡车	-6663
调优	-6664
合作与	-6665
和电子	-6666
商业和	-6667
控制等	-6668
规模化	-6669
传感器的	-6670
数据收集	-6671
还有其他	-6672
预警系统	-6673
可能存在的	-6674
您可以使用	-6675
中起着至关重要的作用	-6676
▁多	-6677
云端	-6678
肿瘤	-6679
蒸汽	-6680
请问	-6681
调试	-6682
象征	-6683
解释其	-6684
计算出	-6685
令人兴奋	-6686
制动系统	-6687
同时保持	-6688
大气污染	-6689
对地攻击	-6690
数据支持	-6691
确保其在	-6692
得到广泛应用	-6693
中发挥重要作用	-6694
用户的个人信息	-6695
航空航天技术还	-6696
主要有以下几个方面	-6697
ransformer	-6698
体制	-6699
保存	-6700
风扇	-6701
uto	-6702
有用的	-6703
由于其	-6704
真正的	-6705
行为的	-6706
两栖攻击	-6707
军事装备	-6708
未来可能	-6709
气动力学	-6710
的挑战和	-6711
艺术家的	-6712
更加智能化	-6713
▁Network	-6714
四是	-6715
弹性	-6716
抑制	-6717
系数	-6718
韧性	-6719
高频	-6720
将面临	-6721
最优的	-6722
应急救援	-6723
精确制导	-6724
航天医学	-6725
虚拟角色	-6726
penAI	-6727
二氧化碳排放	-6728
无人驾驶汽车	-6729
削弱	-6730
吉利	-6731
座位	-6732
康复	-6733
惩罚	-6734
浏览	-6735
线上	-6736
遮挡	-6737
▁系统	-6738
卫星在	-6739
来提供	-6740
类型和	-6741
▁阿波罗	-6742
军用飞机	-6743
国际航空	-6744
密切关注	-6745
通过训练	-6746
对环境造成	-6747
提供科学依据	-6748
随着科技的不断进步	-6749
ex	-6750
受损	-6751
唯一	-6752
对称	-6753
带宽	-6754
并未	-6755
膨胀	-6756
规章	-6757
部位	-6758
战场上	-6759
滤清器	-6760
的持续	-6761
细节和	-6762
odel	-6763
使得飞机	-6764
宇宙射线	-6765
导弹发射	-6766
战斗机和	-6767
更加安全	-6768
突发事件	-6769
通过引入	-6770
▁数据隐私	-6771
个性化服务	-6772
喷气发动机	-6773
复杂的任务	-6774
环境保护和	-6775
人工智能模型	-6776
至关重要的角色	-6777
人群	-6778
供电	-6779
办法	-6780
可见	-6781
均匀	-6782
属于	-6783
杀伤	-6784
管控	-6785
长度	-6786
人类在	-6787
以推动	-6788
决定了	-6789
和交通	-6790
和情感	-6791
有限的	-6792
book	-6793
提供帮助	-6794
现代战争	-6795
能力方面	-6796
选择一个	-6797
降低风险	-6798
隐身技术	-6799
金融领域的	-6800
人工智能还可以在	-6801
ob	-6802
偏离	-6803
南极	-6804
原创	-6805
攻克	-6806
袭击	-6807
证书	-6808
公共交通	-6809
可能性和	-6810
学生可以	-6811
是否应该	-6812
研究人员正在	-6813
75	-6814
打下	-6815
每年	-6816
民营	-6817
代表了	-6818
更容易	-6819
的威胁	-6820
隐蔽性	-6821
的飞行器	-6822
重要突破	-6823
雷达反射	-6824
▁数据收集	-6825
可能会改变	-6826
中国航天事业	-6827
▁m	-6828
他人	-6829
传达	-6830
使命	-6831
地表	-6832
均衡	-6833
每一	-6834
水的	-6835
age	-6836
介绍了	-6837
合作战	-6838
和企业	-6839
和空间	-6840
因此在	-6841
更节能	-6842
系统时	-6843
设计上	-6844
进入了	-6845
全球变暖	-6846
评估结果	-6847
人工智能教育	-6848
会被	-6849
固态	-6850
它能	-6851
有多	-6852
空管	-6853
间隔	-6854
扮演着	-6855
是否能	-6856
的功能	-6857
的发射	-6858
▁特斯拉	-6859
清洁能源	-6860
系统通过	-6861
虚拟助手	-6862
航天飞行器	-6863
人工智能进行	-6864
体现在哪些方面	-6865
这些技术的应用	-6866
IP	-6867
初创	-6868
映射	-6869
令人惊	-6870
公里的	-6871
军队的	-6872
增强其	-6873
电动机	-6874
安全措施	-6875
电子干扰	-6876
送入太空	-6877
适应能力	-6878
产生了影响	-6879
吸引更多的	-6880
艺术作品的	-6881
被广泛应用	-6882
采取相应的	-6883
做出更好的决策	-6884
5)	-6885
丢失	-6886
义务	-6887
呼吸	-6888
监管和	-6889
不仅仅是	-6890
多样性和	-6891
对于提升	-6892
机组成员	-6893
汽车文化	-6894
航天领域	-6895
资源管理	-6896
也可以通过	-6897
交流与合作	-6898
还需要考虑	-6899
重要里程碑	-6900
金融行业的	-6901
减少能源消耗	-6902
乘客和机组人员	-6903
产生了重要影响	-6904
▁对	-6905
划分	-6906
即可	-6907
山东	-6908
顺畅	-6909
不需要	-6910
发现的	-6911
和提升	-6912
和监控	-6913
场景的	-6914
市场和	-6915
第二次	-6916
▁当谈到	-6917
人类社会	-6918
关键角色	-6919
可能产生	-6920
带来新的	-6921
通过构建	-6922
是一个复杂	-6923
目标是什么	-6924
保护个人隐私	-6925
大规模数据集	-6926
实现可持续发展	-6927
在人工智能领域的	-6928
勘探	-6929
条款	-6930
注入	-6931
跨国	-6932
737	-6933
和通信	-6934
意识和	-6935
技术中	-6936
暗物质	-6937
的空中	-6938
认识到	-6939
动态调整	-6940
环保法规	-6941
能源供应	-6942
检查和维护	-6943
人工智能正在	-6944
侵犯个人隐私	-6945
有许多重要的	-6946
严格的质量控制	-6947
LS	-6948
假设	-6949
微调	-6950
深圳	-6951
SVM	-6952
▁波音	-6953
场景和	-6954
大学的	-6955
数量和	-6956
时能够	-6957
热防护	-6958
的结构	-6959
专家系统	-6960
各个环节	-6961
地理信息	-6962
如何促进	-6963
正在进行	-6964
这些变化	-6965
随着全球	-6966
未经授权的	-6967
而有所不同	-6968
速度和效率	-6969
领域的技术	-6970
人工智能将在	-6971
起到了关键作用	-6972
▁Learning	-6973
倾斜	-6974
同类	-6975
补偿	-6976
载重	-6977
运算	-6978
▁促进	-6979
在空中	-6980
宇宙中	-6981
技术是	-6982
的特性	-6983
的精度	-6984
训练集	-6985
首先是	-6986
信息共享	-6987
其中一种	-6988
实践经验	-6989
对于推动	-6990
复合材料的	-6991
关于航空航天	-6992
准确性和效率	-6993
辅助医生进行	-6994
▁自动驾驶汽车	-6995
坚固	-6996
澳大	-6997
诸多	-6998
per	-6999
的实时	-7000
的开发	-7001
联合国	-7002
自行车	-7003
航天服	-7004
近距离	-7005
ural	-7006
▁以上是	-7007
图像分类	-7008
它们可以	-7009
训练好的	-7010
飞机制造	-7011
自动化技术	-7012
▁请解释一下什么是	-7013
航空航天科学的发展	-7014
eg	-7015
启发	-7016
好处	-7017
转速	-7018
ser	-7019
产品或	-7020
优异的	-7021
可回收	-7022
忠诚度	-7023
来训练	-7024
这也是	-7025
快门速度	-7026
语言处理	-7027
进行预测	-7028
▁智能家居	-7029
以确保其在	-7030
生活和工作	-7031
航天技术在	-7032
强化学习算法	-7033
数据安全和隐私保护	-7034
EC	-7035
》(	-7036
妥善	-7037
电商	-7038
病例	-7039
符号	-7040
-19	-7041
ABS	-7042
BER	-7043
ech	-7044
会增加	-7045
理论上	-7046
▁在现代	-7047
可能受到	-7048
汽车电子	-7049
这个领域	-7050
需要制定	-7051
Alexa	-7052
中国空间站	-7053
太空环境的	-7054
理解和解释	-7055
决策支持系统	-7056
▁苏	-7057
催生	-7058
前方	-7059
天基	-7060
感受	-7061
时空	-7062
牺牲	-7063
还要	-7064
阻碍	-7065
▁教育	-7066
为客户	-7067
以了解	-7068
反映出	-7069
和专业	-7070
建设的	-7071
来识别	-7072
等措施	-7073
预警和	-7074
如何改变	-7075
情况如何	-7076
更深入的	-7077
治疗效果	-7078
特征工程	-7079
收集大量的	-7080
数据中提取	-7081
飞机的设计	-7082
有着深远的影响	-7083
一路	-7084
分解	-7085
排除	-7086
普勒	-7087
空白	-7088
120	-7089
▁基于	-7090
在一起	-7091
我可以	-7092
水平的	-7093
生成式	-7094
的处理	-7095
管制员	-7096
超过了	-7097
轨道上	-7098
优化设计	-7099
全球贸易	-7100
可以模拟	-7101
技术研发	-7102
确保他们	-7103
造成威胁	-7104
中的具体应用	-7105
不被	-7106
不要	-7107
外层	-7108
总装	-7109
最早	-7110
西安	-7111
价值和	-7112
关注的	-7113
很好的	-7114
是一位	-7115
的未来	-7116
Face	-7117
创造新的	-7118
存在偏见	-7119
指挥控制	-7120
核潜艇的	-7121
的设计与	-7122
航空领域	-7123
驱逐舰的	-7124
机器人可以	-7125
提高能源效率	-7126
不佳	-7127
增大	-7128
教材	-7129
散热	-7130
熟练	-7131
NPC	-7132
fic	-7133
你认为	-7134
共和国	-7135
创新点	-7136
是为了	-7137
材料在	-7138
燃油车	-7139
精细化	-7140
如何提升	-7141
法律要求	-7142
这包括对	-7143
产生的噪音	-7144
从而提供更	-7145
更好地管理	-7146
有哪些优势	-7147
燃料效率和	-7148
被广泛用于	-7149
个性化的服务	-7150
减少燃料消耗	-7151
飞机和航天器	-7152
学生的学习进度和	-7153
人工智能可以帮助企业	-7154
亲身	-7155
代理	-7156
冲压	-7157
撤离	-7158
死亡	-7159
ure	-7160
发展中	-7161
大幅度	-7162
布局和	-7163
清洗和	-7164
的相关	-7165
利益相关	-7166
在线教育	-7167
在飞行中	-7168
汽车销售	-7169
相关部门	-7170
这反映了	-7171
飞行技术	-7172
飞行数据	-7173
中发挥作用	-7174
具有较高的	-7175
动力系统的	-7176
如何改变了	-7177
研发和生产	-7178
一带	-7179
万吨	-7180
威力	-7181
孤独	-7182
底盘	-7183
木星	-7184
灌溉	-7185
非洲	-7186
大多数	-7187
实施了	-7188
尤其在	-7189
庞大的	-7190
空战中	-7191
航空的	-7192
蛋白质	-7193
趋势和	-7194
与美国的	-7195
制造成本	-7196
因此需要	-7197
处理大量	-7198
政策法规	-7199
能够执行	-7200
能量密度	-7201
措施来确保	-7202
计算机辅助	-7203
人工智能可以实现	-7204
/7	-7205
IM	-7206
mo	-7207
京东	-7208
声学	-7209
拉克	-7210
机在	-7211
ial	-7212
”、“	-7213
▁创新	-7214
▁环境	-7215
中应用	-7216
击败了	-7217
更低的	-7218
评估其	-7219
军事领域	-7220
新技术和	-7221
轻质材料	-7222
有哪些影响	-7223
环境的影响	-7224
确保数据的	-7225
▁人工智能技术的	-7226
人工智能在艺术创作	-7227
为主	-7228
以其	-7229
制空	-7230
合物	-7231
将是	-7232
成形	-7233
抱死	-7234
星链	-7235
曲线	-7236
最为	-7237
有序	-7238
胜利	-7239
▁引入	-7240
▁选择	-7241
卓越的	-7242
和升级	-7243
应用户	-7244
组成的	-7245
具体包括	-7246
法规政策	-7247
续航能力	-7248
通过利用	-7249
▁语音识别	-7250
不仅推动了	-7251
传感器数据	-7252
措施来保护	-7253
航天任务的	-7254
设计和建造	-7255
知识产权保护	-7256
做出更准确的决策	-7257
通过分析学生的学习	-7258
不开	-7259
等都	-7260
高分	-7261
▁在线	-7262
参与了	-7263
城市的	-7264
操控性	-7265
教师的	-7266
条件和	-7267
的产生	-7268
的快速	-7269
雷达的	-7270
有足够的	-7271
▁以上都是	-7272
主要是因为	-7273
飞机制造商	-7274
可以大大提高	-7275
困境	-7276
差分	-7277
我的	-7278
水质	-7279
灭火	-7280
焦点	-7281
突击	-7282
等级	-7283
能见	-7284
首位	-7285
将通过	-7286
并从中	-7287
的因素	-7288
世界冠军	-7289
培训课程	-7290
的发动机	-7291
转型升级	-7292
这些改进	-7293
需要了解	-7294
高速公路	-7295
伦理和道德	-7296
数据进行分析	-7297
降低运营成本	-7298
":	-7299
免疫	-7300
厚的	-7301
变换	-7302
和更	-7303
广州	-7304
顶尖	-7305
领空	-7306
CAD	-7307
和视频	-7308
文化和	-7309
状态和	-7310
的精准	-7311
-400	-7312
以及它们	-7313
同比增长	-7314
总体而言	-7315
投资回报	-7316
有很大的	-7317
的基础上	-7318
▁风险评估	-7319
挑战和机遇	-7320
提供了一种	-7321
航天飞行器的	-7322
iz	-7323
▁该	-7324
上汽	-7325
内存	-7326
同一	-7327
后来	-7328
模具	-7329
流线	-7330
涌现	-7331
立法	-7332
船舶	-7333
议题	-7334
选项	-7335
通知	-7336
关注和	-7337
其发展	-7338
成熟度	-7339
斯坦福	-7340
等数据	-7341
苏联的	-7342
一带一路	-7343
国际组织	-7344
提高交通	-7345
机动性能	-7346
生成模型	-7347
这些创新	-7348
量子通信	-7349
人民共和国	-7350
结构强度和	-7351
航空航天科学在	-7352
以减少对环境的影响	-7353
密码	-7354
射电	-7355
频段	-7356
从而使	-7357
他人的	-7358
史上的	-7359
就可以	-7360
优化算法	-7361
保护措施	-7362
展现出了	-7363
市场营销	-7364
持续发展	-7365
的发展和	-7366
通过采用	-7367
的关键在于	-7368
致力于开发	-7369
太阳能电池板	-7370
通过机器学习	-7371
航空航天法规和政策	-7372
ud	-7373
期刊	-7374
观念	-7375
误判	-7376
避障	-7377
间断	-7378
对提升	-7379
扮演了	-7380
行动中	-7381
▁在开发	-7382
多个国家	-7383
模拟训练	-7384
环保政策	-7385
通过算法	-7386
国家安全和	-7387
我们需要在	-7388
标准和规定	-7389
知识和经验	-7390
质量和效率	-7391
▁以上就是在	-7392
航天器的设计	-7393
▁航空航天探索	-7394
中华人民共和国	-7395
自动驾驶技术的发展	-7396
▁自	-7397
再到	-7398
双重	-7399
它为	-7400
广播	-7401
首要	-7402
健康和	-7403
具有较	-7404
和结构	-7405
在这一	-7406
技能的	-7407
理解并	-7408
舰艇的	-7409
高风险	-7410
什么影响	-7411
以提供更	-7412
分析结果	-7413
哪些关键	-7414
批改作业	-7415
的无人机	-7416
航天工程	-7417
许多领域	-7418
注意力机制	-7419
超音速客机	-7420
做出更准确的	-7421
可以根据用户的	-7422
的效率和安全性	-7423
mm	-7424
▁马	-7425
、"	-7426
乃至	-7427
低碳	-7428
农村	-7429
判别	-7430
前进	-7431
奥迪	-7432
尘埃	-7433
空警	-7434
舰船	-7435
苹果	-7436
视距	-7437
优质的	-7438
受欢迎	-7439
将人类	-7440
生活的	-7441
能源的	-7442
企业需要	-7443
市场变化	-7444
投资策略	-7445
新型材料	-7446
的高精度	-7447
航空管理	-7448
被应用于	-7449
通过提高	-7450
飞机起降	-7451
飞行路线	-7452
带来了新的	-7453
是人工智能	-7454
标准和规范	-7455
研制过程中	-7456
▁请列举一些	-7457
需要大量的数据来进行	-7458
包括但不限于以下几个方面	-7459
SM	-7460
只能	-7461
坐标	-7462
甲烷	-7463
调研	-7464
GDP	-7465
▁推动	-7466
▁游戏	-7467
包括了	-7468
卫星等	-7469
对美国	-7470
并保持	-7471
搜索和	-7472
考虑了	-7473
高效地	-7474
交通标志	-7475
全球覆盖	-7476
公共安全	-7477
性能指标	-7478
环境科学	-7479
紧密合作	-7480
能够自主	-7481
自动生成	-7482
在哪些方面	-7483
感知和理解	-7484
先进的技术和	-7485
▁t	-7486
一名	-7487
中小	-7488
人和	-7489
外界	-7490
并非	-7491
承载	-7492
抵消	-7493
本质	-7494
校准	-7495
流失	-7496
电脑	-7497
资格	-7498
预示	-7499
中可能	-7500
中实现	-7501
为企业	-7502
会受到	-7503
来获取	-7504
简化了	-7505
陀螺仪	-7506
保险公司	-7507
对中国的	-7508
市场预测	-7509
通过预测	-7510
高速飞行	-7511
严格的数据	-7512
和数据保护	-7513
如自动驾驶	-7514
效率和质量	-7515
进行全面的	-7516
人工智能在游戏	-7517
云层	-7518
定的	-7519
挂载	-7520
步伐	-7521
背后	-7522
▁to	-7523
成功的	-7524
投资和	-7525
制导系统	-7526
可以显著	-7527
质量管理	-7528
运行效率	-7529
这一事件	-7530
执行任务时	-7531
根据用户的	-7532
法律和伦理问题	-7533
人工智能的发展和应用	-7534
av	-7535
一流	-7536
封锁	-7537
有源	-7538
标识	-7539
盲点	-7540
STM	-7541
ort	-7542
▁尽管	-7543
任务上	-7544
内燃机	-7545
和减少	-7546
的普及	-7547
确保您	-7548
交叉验证	-7549
发射成本	-7550
帮助人们	-7551
战场态势	-7552
正在不断	-7553
帮助投资者	-7554
的环境影响	-7555
▁你能解释一下	-7556
通过深度学习和	-7557
是一个重要的挑战	-7558
》,	-7559
中型	-7560
快捷	-7561
护理	-7562
毕业	-7563
这与	-7564
。2)	-7565
发现并	-7566
和文化	-7567
操作和	-7568
来完成	-7569
的增强	-7570
目前的	-7571
负责任	-7572
透明性	-7573
问题和	-7574
产品设计	-7575
准备工作	-7576
提供关于	-7577
用户需求	-7578
税收优惠	-7579
更环保的燃料	-7580
取得了重大突破	-7581
,3	-7582
你能	-7583
受限	-7584
学研	-7585
考察	-7586
遥远	-7587
银河	-7588
主要由	-7589
只是一	-7590
和更新	-7591
应用在	-7592
或使用	-7593
相对于	-7594
能够对	-7595
24/7	-7596
伦理规范	-7597
卫星系统	-7598
图灵测试	-7599
处理技术	-7600
独特之处	-7601
电池技术	-7602
访问控制	-7603
遗传算法	-7604
提供实时的	-7605
未来可能会	-7606
领域的使用	-7607
进行风险评估	-7608
决心	-7609
动画	-7610
反复	-7611
可用	-7612
和多	-7613
纳入	-7614
▁注意	-7615
保障了	-7616
发布了	-7617
材料等	-7618
生产的	-7619
的原理	-7620
▁200	-7621
▁航天器	-7622
发动机在	-7623
就是一个	-7624
我们理解	-7625
科技公司	-7626
长途旅行	-7627
可能感兴趣	-7628
道德和法律	-7629
人工智能伦理问题	-7630
▁人工智能如何影响	-7631
勇气	-7632
喜欢	-7633
成型	-7634
我对	-7635
报废	-7636
排气	-7637
极为	-7638
电离	-7639
疏松	-7640
-30	-7641
反坦克	-7642
外观和	-7643
太阳翼	-7644
我们会	-7645
货物的	-7646
做出反应	-7647
市场规模	-7648
经济影响	-7649
进行全面	-7650
提高他们的	-7651
生态系统的	-7652
▁深度学习和神经网络	-7653
”(	-7654
常常	-7655
灵敏	-7656
臭氧	-7657
观看	-7658
词汇	-7659
和沟通	-7660
国家在	-7661
引起了	-7662
方向和	-7663
机构的	-7664
第三方	-7665
精准地	-7666
节省了	-7667
任务执行	-7668
可以促进	-7669
提供一个	-7670
气动设计	-7671
空间垃圾	-7672
能够实时	-7673
驾驶决策	-7674
发展的同时	-7675
可能涉及到	-7676
宇航员尼尔	-7677
提出了哪些	-7678
相关领域的	-7679
全球航空航天	-7680
通过数据分析	-7681
飞行器的性能	-7682
高超音速武器	-7683
航空航天科普教育	-7684
LO	-7685
制备	-7686
壮丽	-7687
备用	-7688
希德	-7689
技师	-7690
一直在	-7691
产学研	-7692
内容的	-7693
利用其	-7694
匿名化	-7695
存储和	-7696
实战化	-7697
数据链	-7698
等环节	-7699
我会尽力	-7700
投资组合	-7701
这些法规	-7702
侦察和监视	-7703
帮助科学家	-7704
机遇和挑战	-7705
的技术进步	-7706
能够提供更	-7707
训练和学习	-7708
通过分析用户的	-7709
人工智能可以帮助医生	-7710
Ap	-7711
一汽	-7712
减灾	-7713
压制	-7714
成都	-7715
病毒	-7716
适宜	-7717
-57	-7718
低技能	-7719
和交流	-7720
和道德	-7721
实验和	-7722
用户对	-7723
信息技术	-7724
导航定位	-7725
相对较低	-7726
自主决策	-7727
▁客户服务	-7728
▁技术创新	-7729
▁电动汽车	-7730
与人工智能	-7731
中的伦理问题	-7732
减少不必要的	-7733
有广泛的应用	-7734
人工智能可以通过自动化	-7735
人工智能在医疗领域的应用	-7736
像素	-7737
更长	-7738
画面	-7739
科工	-7740
纹理	-7741
车和	-7742
800	-7743
MRI	-7744
▁我国	-7745
▁火箭	-7746
▁鉴于	-7747
可能不	-7748
将这些	-7749
平台上	-7750
是使用	-7751
▁我认为	-7752
中的具体	-7753
以及其他	-7754
停机时间	-7755
垂直发射	-7756
提供重要	-7757
自主导航	-7758
辅助工具	-7759
这些影响	-7760
音乐创作	-7761
高性能的	-7762
▁太空探索	-7763
就业市场的	-7764
更好地适应	-7765
机器学习的	-7766
的风险评估	-7767
维修和保养	-7768
设计和实施	-7769
这可能会引发	-7770
人工智能和数据	-7771
▁在人工智能领域	-7772
航空航天科学在军事	-7773
一辆	-7774
主战	-7775
参观	-7776
大疆	-7777
救生	-7778
更有	-7779
欣赏	-7780
洛克	-7781
购置	-7782
FAA	-7783
可扩展	-7784
和娱乐	-7785
爱好者	-7786
规定和	-7787
这两个	-7788
BERT	-7789
使机器人	-7790
健康监测	-7791
恶意攻击	-7792
电子技术	-7793
的时间内	-7794
系统工程	-7795
▁NASA	-7796
优势是什么	-7797
发动机设计	-7798
Watson	-7799
人类对宇宙的	-7800
的效率和效果	-7801
81	-7802
则在	-7803
占比	-7804
口径	-7805
赛道	-7806
近期	-7807
ine	-7808
刹车片	-7809
反馈和	-7810
流线型	-7811
的原则	-7812
相当于	-7813
离不开	-7814
药物的	-7815
设计者	-7816
辐射等	-7817
需要从	-7818
高技术	-7819
2015	-7820
取代人类	-7821
搜索引擎	-7822
新材料的	-7823
正在研究	-7824
环境数据	-7825
环境条件	-7826
空间科学	-7827
评估指标	-7828
骨质疏松	-7829
大大降低了	-7830
方面的问题	-7831
回收和再利用	-7832
通过机器学习和	-7833
创造了大量的就业机会	-7834
GA	-7835
▁的	-7836
俄军	-7837
做法	-7838
分发	-7839
十四	-7840
手势	-7841
收敛	-7842
某种	-7843
频谱	-7844
▁天舟	-7845
取得的	-7846
可能因	-7847
微生物	-7848
生产力	-7849
积累了	-7850
辽宁舰	-7851
阻力和	-7852
中的运用	-7853
公平竞争	-7854
导弹系统	-7855
探测任务	-7856
更严格的	-7857
金融数据	-7858
一定的影响	-7859
哥伦比亚号	-7860
自主研发的	-7861
无人驾驶技术	-7862
洲际弹道导弹	-7863
航空航天技术也	-7864
▁航空航天行业的	-7865
29	-7866
ub	-7867
严谨	-7868
为我	-7869
以往	-7870
但它	-7871
即将	-7872
广汽	-7873
数百	-7874
活力	-7875
空对	-7876
线索	-7877
经销	-7878
▁检查	-7879
在选择	-7880
实际的	-7881
火星上	-7882
的理论	-7883
主要研究	-7884
带来了哪些	-7885
更加环保的	-7886
航空航天科技的	-7887
环保和可持续发展	-7888
侵权	-7889
推移	-7890
航速	-7891
评论	-7892
邀请	-7893
重心	-7894
闸舱	-7895
阵列	-7896
787	-7897
▁保持	-7898
▁法规	-7899
。3)	-7900
以增加	-7901
射程和	-7902
性问题	-7903
更全面	-7904
更注重	-7905
氢燃料	-7906
独立的	-7907
环保与	-7908
稳定和	-7909
组合体	-7910
使其更加	-7911
区别在于	-7912
职业生涯	-7913
设计方案	-7914
通信设备	-7915
雷达探测	-7916
数据的分析	-7917
的研究成果	-7918
▁需要注意的是	-7919
技术的快速发展	-7920
器在	-7921
讯飞	-7922
误解	-7923
▁Al	-7924
▁月球	-7925
对周围	-7926
空间中	-7927
ment	-7928
企业可以	-7929
信息传输	-7930
国际关系	-7931
对飞机的	-7932
更安全的	-7933
监控系统	-7934
空中作战	-7935
能够准确	-7936
载荷能力	-7937
需要关注	-7938
劳动力市场	-7939
及时发现和	-7940
对就业市场	-7941
研究和发展	-7942
高质量发展	-7943
▁选择合适的	-7944
标志着中国在	-7945
航空航天相关的	-7946
LM	-7947
▁U	-7948
写作	-7949
导引	-7950
既有	-7951
机体	-7952
沃尔	-7953
爱国	-7954
细分	-7955
队的	-7956
-14	-7957
-25	-7958
不仅在	-7959
以减轻	-7960
和效率	-7961
和教育	-7962
密度和	-7963
导弹在	-7964
更适合	-7965
测试等	-7966
遇到过	-7967
军事通信	-7968
应用案例	-7969
设计一个	-7970
设计理念	-7971
黑箱操作	-7972
▁1969	-7973
▁如何利用	-7974
分析和理解	-7975
因素的影响	-7976
天气条件下	-7977
微重力环境	-7978
我们还需要	-7979
ChatGPT	-7980
专业知识和技能	-7981
通常需要大量的	-7982
36	-7983
IR	-7984
含有	-7985
器等	-7986
声纳	-7987
炮弹	-7988
精益	-7989
起步	-7990
违规	-7991
加剧了	-7992
引入了	-7993
来控制	-7994
气体的	-7995
的平衡	-7996
的改进	-7997
跟踪和	-7998
1903	-7999
sera	-8000
太空探险	-8001
更多的人	-8002
自然资源	-8003
资源利用	-8004
进行训练	-8005
通过研究	-8006
研发过程中	-8007
算法和技术	-8008
识别和预测	-8009
以下几种方法	-8010
系统的安全性	-8011
oursera	-8012
三角	-8013
介入	-8014
体育	-8015
加拿	-8016
宙斯	-8017
形势	-8018
执照	-8019
批准	-8020
接入	-8021
斯克	-8022
煤油	-8023
誉为	-8024
语境	-8025
▁新型	-8026
为每个	-8027
以解决	-8028
冲突中	-8029
的卫星	-8030
管理等	-8031
覆盖率	-8032
运输和	-8033
这要求	-8034
通过其	-8035
中的主要	-8036
作战效率	-8037
取代一些	-8038
城市交通	-8039
如果没有	-8040
工作人员	-8041
废弃物的	-8042
性能提升	-8043
提前做好	-8044
注意事项	-8045
的有效性	-8046
设计阶段	-8047
这些工具	-8048
eural	-8049
也可能引发	-8050
性和准确性	-8051
技术和方法	-8052
技术和设备	-8053
方面的能力	-8054
这包括使用	-8055
进入太空的	-8056
充电基础设施	-8057
采取了一系列	-8058
中国航天科技集团	-8059
▁在航空航天行业中	-8060
▁人工智能和机器学习	-8061
CF	-8062
▁f	-8063
壁垒	-8064
平方	-8065
最具	-8066
格式	-8067
ore	-8068
能力上	-8069
距离和	-8070
降落伞	-8071
反向传播	-8072
和智能化	-8073
智能助理	-8074
法规要求	-8075
需要建立	-8076
卫星通信技术	-8077
确保飞行安全	-8078
航空航天研究	-8079
与地面控制中心	-8080
计算机视觉技术	-8081
99	-8082
传承	-8083
天空	-8084
巡视	-8085
放大	-8086
转让	-8087
ero	-8088
ist	-8089
和策略	-8090
和软件	-8091
能见度	-8092
全球经济	-8093
制造业中	-8094
图像生成	-8095
如太阳能	-8096
提高驾驶	-8097
理解能力	-8098
能够及时	-8099
能够更加	-8100
集成学习	-8101
可以减少对	-8102
特别是对于	-8103
识别和跟踪	-8104
超音速巡航	-8105
这可以包括	-8106
分享一些关于	-8107
可以帮助医生	-8108
可以帮助学生	-8109
国家和地区的	-8110
▁航空航天领域	-8111
人工智能的同时	-8112
是一个重要的问题	-8113
人工智能还可以应用于	-8114
凭借	-8115
各方	-8116
和不	-8117
扶持	-8118
搜寻	-8119
权衡	-8120
点的	-8121
质疑	-8122
风向	-8123
齿轮	-8124
▁你好	-8125
▁学习	-8126
▁算法	-8127
宙斯盾	-8128
集团在	-8129
LSTM	-8130
中国汽车	-8131
型驱逐舰	-8132
带来更多	-8133
文本数据	-8134
电子对抗	-8135
空空导弹	-8136
进行飞行	-8137
远程医疗	-8138
需要面对	-8139
使其能够在	-8140
对数据进行	-8141
行为和偏好	-8142
定期进行安全	-8143
极大地提升了	-8144
设计和制造过程	-8145
隐私和数据安全	-8146
中扮演着重要的角色	-8147
55	-8148
下面	-8149
学位	-8150
授时	-8151
播放	-8152
欺骗	-8153
氢能	-8154
越野	-8155
配件	-8156
降噪	-8157
马丁	-8158
与技术	-8159
它使用	-8160
服务业	-8161
来增强	-8162
来推动	-8163
核威慑	-8164
第三代	-8165
类似的	-8166
▁请分析	-8167
以及这种	-8168
在技术上	-8169
在线学习	-8170
如何评估	-8171
实时数据	-8172
有很多种	-8173
环保措施	-8174
的前提下	-8175
结构力学	-8176
▁航天器的	-8177
个人数据的	-8178
交流和合作	-8179
安全性问题	-8180
我们也需要	-8181
时间的推移	-8182
通过这些措施	-8183
利用人工智能进行	-8184
北极	-8185
新车	-8186
病人	-8187
载弹	-8188
过渡	-8189
领土	-8190
麻省	-8191
关系到	-8192
反卫星	-8193
反应堆	-8194
大飞机	-8195
将促进	-8196
掌握了	-8197
整体的	-8198
更长的	-8199
网络化	-8200
能够与	-8201
尽可能地	-8202
提高教学	-8203
未来汽车	-8204
洛克希德	-8205
澳大利亚	-8206
用户行为	-8207
语音交互	-8208
质量问题	-8209
鼓励企业	-8210
是一个挑战	-8211
替代传统的	-8212
经过严格的	-8213
航天事业的	-8214
人工智能可能	-8215
对环境的污染	-8216
能够更准确地	-8217
航空航天历史	-8218
通过人工智能	-8219
面临一些挑战	-8220
也是非常重要的	-8221
人工智能在自动驾驶技术	-8222
no	-8223
上市	-8224
人与	-8225
入轨	-8226
双向	-8227
合适	-8228
坠毁	-8229
尺度	-8230
有权	-8231
极低	-8232
流行	-8233
流通	-8234
穿越	-8235
组建	-8236
经理	-8237
迎来	-8238
鹰击	-8239
ard	-8240
lue	-8241
上世纪	-8242
与控制	-8243
包含了	-8244
吸引了	-8245
外太空	-8246
实验中	-8247
形成的	-8248
方面也	-8249
气闸舱	-8250
的增长	-8251
的活动	-8252
驱动力	-8253
事故原因	-8254
安全系统	-8255
提前进行	-8256
主要是通过	-8257
产品质量和	-8258
和人工智能	-8259
是一种基于	-8260
越来越多的	-8261
能源利用效率	-8262
中扮演了什么角色	-8263
航空航天材料科学	-8264
人工智能在自动驾驶	-8265
屏蔽	-8266
担任	-8267
文学	-8268
水量	-8269
相信	-8270
示例	-8271
科大	-8272
美丽	-8273
不间断	-8274
乘务员	-8275
和环保	-8276
好奇心	-8277
战斗部	-8278
携带的	-8279
的减少	-8280
的观测	-8281
超声波	-8282
哪些影响	-8283
姿态控制	-8284
导弹技术	-8285
将会更加	-8286
特斯拉的	-8287
竞争策略	-8288
中国在国际	-8289
中国海军的	-8290
我们可能会	-8291
极端环境下	-8292
神舟十四号	-8293
这可能会对	-8294
人工智能在金融领域的	-8295
一家	-8296
依然	-8297
和低	-8298
飞弹	-8299
art	-8300
之前的	-8301
国际化	-8302
太空船	-8303
有一个	-8304
空间局	-8305
精确性	-8306
透明和	-8307
一般来说	-8308
循环利用	-8309
悬挂系统	-8310
提高医疗	-8311
目标识别	-8312
突破性的	-8313
还有助于	-8314
采取行动	-8315
零部件的	-8316
预测未来	-8317
高超声速	-8318
▁如何看待	-8319
维护和检修	-8320
提高客户满意度	-8321
现代航空航天技术	-8322
中发挥着重要的作用	-8323
航空航天技术还可以用于	-8324
万元	-8325
二次	-8326
仅为	-8327
侦测	-8328
刀具	-8329
叶斯	-8330
隔热	-8331
使我们	-8332
使飞机	-8333
广泛且	-8334
引起的	-8335
有力的	-8336
的分析	-8337
的最新	-8338
贝叶斯	-8339
通常由	-8340
驾驶舱	-8341
与俄罗斯	-8342
以提高其	-8343
减少排放	-8344
加密技术	-8345
应对能力	-8346
得到应用	-8347
整体性能	-8348
机身结构	-8349
梯度下降	-8350
生命支持系统	-8351
航空航天工业中	-8352
创造新的就业机会	-8353
PS	-8354
加深	-8355
已有	-8356
极地	-8357
活跃	-8358
海南	-8359
环绕	-8360
界定	-8361
登记	-8362
等的	-8363
航路	-8364
这两	-8365
顾客	-8366
在没有	-8367
平台和	-8368
恶劣的	-8369
构建了	-8370
被誉为	-8371
轮胎的	-8372
还通过	-8373
▁中国的	-8374
不仅能够	-8375
从而节省	-8376
做出正确	-8377
关键问题	-8378
具有以下	-8379
可以分为	-8380
合作项目	-8381
基本概念	-8382
旨在确保	-8383
需要遵循	-8384
的安全风险	-8385
具体措施包括	-8386
得到了广泛应用	-8387
OS	-8388
内置	-8389
占有	-8390
变量	-8391
对应	-8392
校正	-8393
矿物	-8394
舱段	-8395
落后	-8396
体验和	-8397
加速和	-8398
参与度	-8399
和复杂	-8400
在美国	-8401
工程和	-8402
意识到	-8403
数据量	-8404
的标准	-8405
经销商	-8406
与传统的	-8407
交通状况	-8408
密切合作	-8409
作战能力和	-8410
可能会增加	-8411
成功实现了	-8412
都可能导致	-8413
采取了多项	-8414
麻省理工学院	-8415
使用机器学习算法	-8416
EV	-8417
he	-8418
▁和	-8419
伊尔	-8420
包装	-8421
危害	-8422
厘米	-8423
少数	-8424
工况	-8425
毅力	-8426
血液	-8427
较少	-8428
-12	-8429
▁东风	-8430
▁谈谈	-8431
反欺诈	-8432
和维修	-8433
在提高	-8434
地位和	-8435
敌人的	-8436
数据等	-8437
是因为	-8438
更智能	-8439
耐热性	-8440
零件的	-8441
▁飞行员	-8442
令人惊叹	-8443
构建一个	-8444
现代化的	-8445
现实世界	-8446
还涉及到	-8447
其中之一是	-8448
在这个阶段	-8449
学习和训练	-8450
提供必要的	-8451
模型的训练	-8452
的主要原因	-8453
识别潜在的	-8454
责任归属问题	-8455
▁人工智能如何在	-8456
Ad	-8457
Ar	-8458
复苏	-8459
走向	-8460
rop	-8461
zon	-8462
专家的	-8463
和空中	-8464
必不可	-8465
欧洲的	-8466
特征和	-8467
预测的	-8468
包括飞机	-8469
资源消耗	-8470
这一技术	-8471
这些应用	-8472
工具和技术	-8473
已经取得了	-8474
环境的交互	-8475
更深入地了解	-8476
还有许多其他	-8477
▁希望以上信息	-8478
▁能否介绍一下	-8479
中的应用是什么	-8480
Fi	-8481
前后	-8482
奥尔	-8483
导体	-8484
物种	-8485
老年	-8486
▁考虑	-8487
必要时	-8488
的存在	-8489
的照片	-8490
美军的	-8491
群体的	-8492
超视距	-8493
▁智能化	-8494
可以增强	-8495
坚实基础	-8496
大气中的	-8497
涡轮增压	-8498
相关信息	-8499
确保您的	-8500
美国空军	-8501
一个重要的	-8502
前所未有的	-8503
潜在的问题	-8504
▁以上只是一些	-8505
人工智能系统在	-8506
人工智能系统的决策过程	-8507
ET	-8508
▁Z	-8509
一架	-8510
他在	-8511
单词	-8512
宽带	-8513
属性	-8514
应变	-8515
文中	-8516
求解	-8517
混动	-8518
累计	-8519
赢得	-8520
努力和	-8521
是推动	-8522
行星和	-8523
让用户	-8524
调整其	-8525
软件和	-8526
巨大潜力	-8527
性能测试	-8528
控制策略	-8529
分析和处理	-8530
可持续性的	-8531
可能会更加	-8532
宇宙的起源	-8533
快速准确地	-8534
航空工程师	-8535
飞行安全性	-8536
为我们提供了	-8537
应对这些挑战	-8538
技术的不断进步	-8539
发达	-8540
商飞	-8541
在与	-8542
处罚	-8543
成效	-8544
扰动	-8545
抓住	-8546
最好	-8547
枢纽	-8548
规格	-8549
语法	-8550
可用性	-8551
吸引和	-8552
太阳风	-8553
有以下	-8554
比如在	-8555
突破和	-8556
聚焦于	-8557
这两种	-8558
预示着	-8559
或者使用	-8560
森林火灾	-8561
正在积极	-8562
自主飞行	-8563
这一发现	-8564
mazon	-8565
怎样的影响	-8566
我可以为您	-8567
最新的研究	-8568
欧洲空间局	-8569
的技术创新	-8570
科技创新和	-8571
行业中的应用	-8572
设计与制造中	-8573
航空航天工程的基础	-8574
98	-8575
人际	-8576
单个	-8577
反制	-8578
在其	-8579
规制	-8580
追究	-8581
了解到	-8582
加大对	-8583
加拿大	-8584
各自的	-8585
基础上	-8586
如何将	-8587
提供商	-8588
提升其	-8589
月球和	-8590
特征的	-8591
突破了	-8592
等离子	-8593
可以尝试	-8594
可能成为	-8595
天文学家	-8596
提高决策	-8597
相关机构	-8598
竞争力和	-8599
能够安全	-8600
运行状态	-8601
这些风险	-8602
进行决策	-8603
学习和分析	-8604
消费者行为	-8605
的重要手段	-8606
训练数据的	-8607
二氧化碳和其他	-8608
人工智能和大数据	-8609
实地	-8610
是将	-8611
演示	-8612
聚集	-8613
解码	-8614
车速	-8615
附加	-8616
顶级	-8617
-52	-8618
使汽车	-8619
大挑战	-8620
或更换	-8621
照片的	-8622
的支持	-8623
空间和	-8624
严重影响	-8625
产生推力	-8626
其他星球	-8627
大气层的	-8628
它涉及到	-8629
收集数据	-8630
潜在问题	-8631
科大讯飞	-8632
经济性和	-8633
量子计算	-8634
两栖攻击舰	-8635
主要依赖于	-8636
人们的生活	-8637
我们可以在	-8638
数据科学的	-8639
维护和保养	-8640
运行过程中	-8641
优化生产流程	-8642
实际应用案例	-8643
还需要考虑到	-8644
Facebook	-8645
现代航空航天技术的	-8646
77	-8647
EE	-8648
Sp	-8649
Wi	-8650
ni	-8651
合资	-8652
喷管	-8653
壮观	-8654
术语	-8655
涂料	-8656
灾区	-8657
现役	-8658
相反	-8659
蓝色	-8660
语料	-8661
054	-8662
▁金融	-8663
了中国	-8664
享受到	-8665
以保障	-8666
商用车	-8667
尺寸和	-8668
是一款	-8669
更复杂	-8670
的人才	-8671
的趋势	-8672
质量的	-8673
这将对	-8674
高效率	-8675
Auto	-8676
主要涉及	-8677
军事应用	-8678
天宫二号	-8679
月球背面	-8680
灾害预警	-8681
航天机构	-8682
航空货运	-8683
资源开发	-8684
这一问题	-8685
传感器技术	-8686
弹道导弹的	-8687
方面的挑战	-8688
通信和导航	-8689
预训练模型	-8690
OpenAI	-8691
航空航天科研	-8692
▁能否解释一下	-8693
宇航员在太空中	-8694
▁人工智能在教育领域的	-8695
CN	-8696
主力	-8697
亮度	-8698
塑造	-8699
壮举	-8700
天地	-8701
想象	-8702
批判	-8703
爬升	-8704
受到了	-8705
宇航局	-8706
将达到	-8707
形式的	-8708
快速的	-8709
探测到	-8710
车型的	-8711
各种飞行	-8712
基础知识	-8713
天气变化	-8714
客户需求	-8715
环保性能	-8716
电子系统	-8717
避免碰撞	-8718
非常有用	-8719
飞行效率	-8720
▁噪音污染	-8721
消费者需求	-8722
的工作状态	-8723
设备和技术	-8724
防止数据泄露	-8725
导航与控制系统	-8726
起到了重要作用	-8727
GB	-8728
Re	-8729
不容	-8730
中也	-8731
机密	-8732
点和	-8733
精心	-8734
节目	-8735
阳光	-8736
高原	-8737
充足的	-8738
召回率	-8739
对某些	-8740
指挥官	-8741
来降低	-8742
针对性	-8743
难度和	-8744
偏远地区	-8745
图像分析	-8746
如无人机	-8747
导弹防御	-8748
成为全球	-8749
是否需要	-8750
法律风险	-8751
相关法规	-8752
科技成果	-8753
语音合成	-8754
进一步的	-8755
一些重要的	-8756
设计与模拟	-8757
这就涉及到	-8758
数据进行训练	-8759
催化	-8760
出来	-8761
前瞻	-8762
司机	-8763
地貌	-8764
外国	-8765
构图	-8766
永久	-8767
焦虑	-8768
的不	-8769
这里	-8770
音箱	-8771
顺序	-8772
-31	-8773
▁用户	-8774
▁研究	-8775
后来的	-8776
在开发	-8777
打破了	-8778
早期的	-8779
活动和	-8780
精确和	-8781
AIGC	-8782
不断更新	-8783
保障能力	-8784
几个方面	-8785
教学内容	-8786
登月任务	-8787
导航和控制	-8788
理解和应用	-8789
的技术挑战	-8790
紧急情况时	-8791
通过大数据和	-8792
▁在人工智能的	-8793
自然语言处理等	-8794
通过机器学习算法	-8795
▁人工智能可以通过多种方式帮助	-8796
ps	-8797
包容	-8798
古代	-8799
器材	-8800
如今	-8801
就会	-8802
尽快	-8803
摘要	-8804
系外	-8805
▁人类	-8806
▁虚拟	-8807
固定翼	-8808
对提高	-8809
强烈的	-8810
模式下	-8811
火箭在	-8812
第五代	-8813
▁新一代	-8814
▁汽车的	-8815
再次发生	-8816
军事实力	-8817
安全规定	-8818
打击精度	-8819
测试结果	-8820
火星表面	-8821
特征选择	-8822
监管机制	-8823
编程语言	-8824
这些规定	-8825
喷气式飞机	-8826
提供准确的	-8827
的安全标准	-8828
解决的问题	-8829
包括以下几点	-8830
卫星遥感技术	-8831
实现这一目标	-8832
火星探测任务	-8833
未经授权的访问	-8834
空气动力学设计	-8835
利用机器学习算法	-8836
如碳纤维复合材料	-8837
室内	-8838
展望	-8839
巩固	-8840
担心	-8841
更深	-8842
谈判	-8843
ant	-8844
和存储	-8845
在于其	-8846
威胁到	-8847
投资于	-8848
推出的	-8849
科学院	-8850
错误的	-8851
主要挑战	-8852
气象条件	-8853
生命迹象	-8854
这就需要	-8855
▁在太空中	-8856
▁航空公司	-8857
控制和导航	-8858
科学家可以	-8859
虚拟现实和增强现实技术	-8860
ci	-8861
修订	-8862
可玩	-8863
堵塞	-8864
感觉	-8865
语种	-8866
长焦	-8867
与安全	-8868
大范围	-8869
对地面	-8870
技巧和	-8871
操作中	-8872
未知的	-8873
都有其	-8874
难以被	-8875
▁自适应	-8876
以下策略	-8877
军事平衡	-8878
卫星遥感	-8879
取得成功	-8880
应急预案	-8881
技术水平	-8882
摄像头和	-8883
模型参数	-8884
自主品牌	-8885
轻量化的	-8886
辅助诊断	-8887
和技术发展	-8888
环境监测和	-8889
具有重要作用	-8890
可能会涉及到	-8891
飞行器的重量	-8892
可以提高飞机的	-8893
可以从以下几个方面进行	-8894
又能	-8895
反击	-8896
场所	-8897
宣布	-8898
强劲	-8899
施肥	-8900
是其	-8901
案件	-8902
耐磨	-8903
医学与	-8904
和功能	-8905
直观地	-8906
这将为	-8907
▁在太空	-8908
以确保在	-8909
可以生成	-8910
如何体现	-8911
如果您对	-8912
战场环境	-8913
提供服务	-8914
敏感数据	-8915
更智能的	-8916
空中优势	-8917
航空工程	-8918
飞行训练	-8919
具体的应用	-8920
在自动驾驶	-8921
必不可少的	-8922
性和稳定性	-8923
提供精确的	-8924
的基本概念	-8925
的重要工具	-8926
产业链的发展	-8927
帮助医生进行	-8928
中国新能源汽车	-8929
以下是一些关于	-8930
方面采取了哪些	-8931
的影响是全方位的	-8932
▁人工智能如何改变	-8933
人工智能可以帮助医生进行	-8934
WS	-8935
中段	-8936
发表	-8937
多家	-8938
多重	-8939
月面	-8940
清楚	-8941
秘密	-8942
穿戴	-8943
细致	-8944
速率	-8945
高维	-8946
▁增强	-8947
▁最近	-8948
▁确定	-8949
使学生	-8950
例子是	-8951
异常值	-8952
当地的	-8953
政策对	-8954
设计时	-8955
信息安全	-8956
医疗机构	-8957
环保技术	-8958
面部识别	-8959
可能会产生	-8960
商业模式和	-8961
技术的研发	-8962
更大的作用	-8963
有几个关键	-8964
用户的需求	-8965
的解决方案	-8966
▁数据预处理	-8967
可以通过多种方式	-8968
▁人工智能在金融领域的	-8969
IA	-8970
oT	-8971
op	-8972
三种	-8973
报文	-8974
殖民	-8975
滤波	-8976
病变	-8977
矿产	-8978
秩序	-8979
虚假	-8980
轿车	-8981
-29	-8982
ink	-8983
▁材料	-8984
大气中	-8985
应用和	-8986
汽车时	-8987
选择最	-8988
零售业	-8989
哪些领域	-8990
将极大地	-8991
战略威慑	-8992
改进措施	-8993
理论研究	-8994
进行学习	-8995
领先水平	-8996
也可能导致	-8997
收集的数据	-8998
有重要影响	-8999
流体动力学	-9000
的飞行路径	-9001
制造过程中的	-9002
可以实时监测	-9003
提供了宝贵的	-9004
是一个复杂的	-9005
▁人工智能在商业	-9006
奠定了坚实的基础	-9007
飞机在飞行过程中	-9008
ak	-9009
供需	-9010
各行	-9011
放在	-9012
敌机	-9013
界的	-9014
祝融	-9015
紫外	-9016
解体	-9017
触发	-9018
输送	-9019
ber	-9020
与中国	-9021
伊拉克	-9022
变化和	-9023
服务等	-9024
活动中	-9025
的地形	-9026
的角度	-9027
程度和	-9028
能够将	-9029
为后续的	-9030
使得机器	-9031
宇航员在	-9032
工作环境	-9033
战略规划	-9034
操作系统	-9035
更加灵活	-9036
股票价格	-9037
能源浪费	-9038
行驶路线	-9039
▁航天探索	-9040
卫星的发射	-9041
还可以提高	-9042
减少交通拥堵	-9043
协同作战能力	-9044
人工智能可以应用于	-9045
31	-9046
ne	-9047
公交	-9048
受控	-9049
年底	-9050
微观	-9051
执法	-9052
更优	-9053
此类	-9054
氛围	-9055
福利	-9056
线的	-9057
逃生	-9058
各行各	-9059
和个人	-9060
和培训	-9061
和行业	-9062
子系统	-9063
将得到	-9064
并推动	-9065
很高的	-9066
确保你	-9067
超越了	-9068
转变为	-9069
高级的	-9070
1961	-9071
2012	-9072
GDPR	-9073
▁for	-9074
不断增加	-9075
也引发了	-9076
从大量的	-9077
加剧社会	-9078
和大数据	-9079
和平利用	-9080
是否符合	-9081
自主性和	-9082
迅速发展	-9083
运输效率	-9084
长期太空	-9085
建立有效的	-9086
您可以通过	-9087
技术领域的	-9088
自动化取代	-9089
还可以使用	-9090
应对紧急情况	-9091
整体作战效能	-9092
智能语音助手	-9093
玩家的行为和	-9094
▁航空航天材料	-9095
人工智能技术时	-9096
全球卫星导航系统	-9097
不到	-9098
乐意	-9099
互通	-9100
便携	-9101
厚度	-9102
口音	-9103
大于	-9104
带回	-9105
枭龙	-9106
根本	-9107
热控	-9108
远海	-9109
2.5	-9110
▁实践	-9111
作品的	-9112
和规范	-9113
在金融	-9114
学习率	-9115
或歧视	-9116
沉浸式	-9117
的概率	-9118
精细的	-9119
美军在	-9120
设计了	-9121
ight	-9122
orch	-9123
中的表现	-9124
发生变化	-9125
如何确定	-9126
有何启示	-9127
满足不同	-9128
远程控制	-9129
造成损害	-9130
问题解决	-9131
高强度和	-9132
▁定期检查	-9133
以确保飞机	-9134
具体的问题	-9135
和环境污染	-9136
地球的环境	-9137
提高模型的	-9138
▁新能源汽车	-9139
保护用户隐私	-9140
有着重要影响	-9141
人工智能机器人	-9142
积极的推动作用	-9143
越来越重要的作用	-9144
哲学	-9145
学森	-9146
战车	-9147
新增	-9148
症状	-9149
请求	-9150
个人和	-9151
人性化	-9152
出现了	-9153
年开始	-9154
批判性	-9155
拍摄到	-9156
生理学	-9157
的措施	-9158
的项目	-9159
装备有	-9160
这是否	-9161
避免因	-9162
钱学森	-9163
领导者	-9164
主要关注	-9165
大大缩短	-9166
天宫一号	-9167
官方网站	-9168
建立健全	-9169
猎鹰重型	-9170
的高质量	-9171
重要问题	-9172
以便更好地	-9173
在教育领域	-9174
的飞行体验	-9175
相应的决策	-9176
请随时提问	-9177
选择适当的	-9178
金融市场的	-9179
在新能源汽车	-9180
▁能否提供一些	-9181
未来的发展趋势	-9182
人工智能在数据分析	-9183
Transformer	-9184
借款	-9185
愿意	-9186
承诺	-9187
报警	-9188
排序	-9189
数控	-9190
潜射	-9191
火控	-9192
警惕	-9193
INS	-9194
▁遵守	-9195
不断地	-9196
专家和	-9197
中占据	-9198
中国和	-9199
但同时	-9200
如自动	-9201
它如何	-9202
实时性	-9203
新时代	-9204
火箭弹	-9205
直接的	-9206
航程和	-9207
设施的	-9208
▁在飞机	-9209
世界各地	-9210
也带动了	-9211
前景广阔	-9212
帮助用户	-9213
的目标是	-9214
隐蔽性和	-9215
▁1903	-9216
如何有效地	-9217
方法和技术	-9218
时间和精力	-9219
电子战能力	-9220
的工作岗位	-9221
设计和性能	-9222
领域的影响	-9223
▁SpaceX	-9224
卫星导航系统的	-9225
世界上第一颗人造卫星	-9226
乘客和机组人员的安全	-9227
SO	-9228
制成	-9229
昂贵	-9230
最低	-9231
误导	-9232
防治	-9233
事故中	-9234
信任度	-9235
呈现出	-9236
和设计	-9237
和验证	-9238
操作员	-9239
的高效	-9240
试验中	-9241
预定的	-9242
-160	-9243
专业技能	-9244
军事侦察	-9245
减少错误	-9246
新材料和	-9247
明确规定	-9248
有不同的	-9249
的精度和	-9250
竞争格局	-9251
详细信息	-9252
还有很多	-9253
▁如何解决	-9254
使得我们能够	-9255
卫星通信系统	-9256
如果人工智能	-9257
▁航空航天法规	-9258
做出正确的决策	-9259
人类历史上第一次	-9260
航空航天法律与政策	-9261
▁人工智能在艺术创作	-9262
天然	-9263
头部	-9264
带有	-9265
橡胶	-9266
病理	-9267
趣味	-9268
运转	-9269
集聚	-9270
▁请简	-9271
以便于	-9272
公司如	-9273
其主要	-9274
印度的	-9275
对环保	-9276
的进展	-9277
零排放	-9278
▁机器人	-9279
产业生态	-9280
亲身体验	-9281
人类智能	-9282
救援行动	-9283
案例研究	-9284
突防能力	-9285
责任问题	-9286
也非常重要	-9287
周围的环境	-9288
是如何实现的	-9289
技术的不断发展	-9290
环保领域的应用	-9291
航空技术的发展	-9292
航空航天领域中	-9293
CC	-9294
两次	-9295
元件	-9296
土星	-9297
材质	-9298
水分	-9299
签署	-9300
绝对	-9301
重庆	-9302
雷暴	-9303
飞跃	-9304
747	-9305
▁Ch	-9306
十四五	-9307
半导体	-9308
或泄露	-9309
提高对	-9310
日本的	-9311
更符合	-9312
的平台	-9313
短报文	-9314
许可证	-9315
发现隐藏	-9316
可能会在	-9317
探测技术	-9318
正在努力	-9319
这一成就	-9320
可能发生的	-9321
对模型进行	-9322
的安全意识	-9323
系统的设计	-9324
安全性和效率	-9325
的方法有很多	-9326
人工智能在商业	-9327
准确性和可靠性	-9328
航空航天的发展	-9329
▁人工智能在游戏	-9330
MH	-9331
中东	-9332
司令	-9333
声呐	-9334
客观	-9335
战役	-9336
消防	-9337
畅通	-9338
股份	-9339
节奏	-9340
过载	-9341
阵风	-9342
音响	-9343
飞越	-9344
log	-9345
与发展	-9346
天气和	-9347
展示的	-9348
是关键	-9349
相同的	-9350
能提供	-9351
设计等	-9352
预测并	-9353
可以识别	-9354
地球表面	-9355
实体识别	-9356
最先进的	-9357
生产计划	-9358
运营管理	-9359
飞机结构	-9360
飞行原理	-9361
▁中国航天	-9362
▁北斗三号	-9363
和技术支持	-9364
和数据传输	-9365
和维护成本	-9366
大量数据中	-9367
自我学习和	-9368
提高飞行效率	-9369
第二次世界大战	-9370
前往	-9371
宽敞	-9372
尔斯	-9373
尼亚	-9374
数十	-9375
更小	-9376
来袭	-9377
电瓶	-9378
自给	-9379
降水	-9380
静态	-9381
黑盒	-9382
ark	-9383
ect	-9384
和商业	-9385
地面站	-9386
改进了	-9387
更广泛	-9388
来规范	-9389
行业和	-9390
覆盖了	-9391
都可以	-9392
非常大	-9393
多个因素	-9394
快速增长	-9395
航空材料	-9396
道路上的	-9397
需要大量	-9398
在金融领域	-9399
挑战和问题	-9400
理解和预测	-9401
个性化的学习	-9402
更准确地诊断疾病	-9403
人工智能的广泛应用	-9404
33	-9405
44	-9406
▁Y	-9407
代替	-9408
侧面	-9409
创始	-9410
地域	-9411
常态	-9412
开设	-9413
授课	-9414
施工	-9415
水上	-9416
精彩	-9417
边境	-9418
ate	-9419
化合物	-9420
服务器	-9421
的全面	-9422
的难度	-9423
也在积极	-9424
交互体验	-9425
伦理标准	-9426
可以分享	-9427
可以达到	-9428
噪音控制	-9429
实际案例	-9430
模型性能	-9431
电子商务	-9432
盈利能力	-9433
进行数据	-9434
通过持续	-9435
需要能够	-9436
驾驶习惯	-9437
主要涉及到	-9438
有哪些关键	-9439
涡扇发动机	-9440
可以显著提高	-9441
如果您有任何	-9442
美国的阿波罗	-9443
帮助我们更好地理解和	-9444
ge	-9445
pl	-9446
争夺	-9447
光纤	-9448
客舱	-9449
小组	-9450
或被	-9451
植被	-9452
潜水	-9453
足迹	-9454
▁9.	-9455
▁St	-9456
▁军事	-9457
丰富和	-9458
但由于	-9459
国防部	-9460
学术界	-9461
差异化	-9462
数据被	-9463
生成器	-9464
的管理	-9465
监督和	-9466
等操作	-9467
等新兴	-9468
▁这只是	-9469
不容忽视	-9470
作为一种	-9471
同时也为	-9472
处理复杂	-9473
大气层时	-9474
安全运行	-9475
市场中的	-9476
监测系统	-9477
维护国家	-9478
进行操作	-9479
非结构化	-9480
▁以上这些	-9481
创新和改进	-9482
发展的重要	-9483
如何影响其	-9484
是否有可能	-9485
模块化设计	-9486
的工作效率	-9487
维护与修复	-9488
不仅可以提高	-9489
宇航员的健康	-9490
更有效地管理	-9491
进入太空的人	-9492
▁航空航天法律	-9493
需要解决的问题	-9494
人工智能可以分析大量的	-9495
72	-9496
>:	-9497
EA	-9498
产值	-9499
低轨	-9500
关卡	-9501
基准	-9502
外壳	-9503
孪生	-9504
方言	-9505
渲染	-9506
热爱	-9507
管道	-9508
米的	-9509
课题	-9510
象棋	-9511
违法	-9512
052	-9513
ISS	-9514
保持在	-9515
加快了	-9516
医生的	-9517
在解决	-9518
对国家	-9519
思考和	-9520
数学和	-9521
正确地	-9522
的模式	-9523
真实感	-9524
祝融号	-9525
这通常	-9526
防抱死	-9527
太空行走	-9528
的研究中	-9529
空间环境	-9530
识别和分析	-9531
有何具体影响	-9532
未来发展方向	-9533
防空导弹系统	-9534
产生深远的影响	-9535
人工智能在制造业	-9536
现代航空航天技术在	-9537
中俄	-9538
会上	-9539
全新	-9540
列装	-9541
史上	-9542
机队	-9543
电压	-9544
静止	-9545
▁回答	-9546
会使用	-9547
它包括	-9548
接收到	-9549
的政策	-9550
运动和	-9551
这将使	-9552
以及它在	-9553
共同应对	-9554
发生碰撞	-9555
大型客机	-9556
安全隐患	-9557
将进一步	-9558
指导原则	-9559
智能决策	-9560
更多关于	-9561
海洋污染	-9562
疫情期间	-9563
的环境下	-9564
维修人员	-9565
道德准则	-9566
隐私泄露	-9567
个性化需求	-9568
位置和速度	-9569
和决策能力	-9570
拍摄航空器	-9571
模拟人类的	-9572
▁超音速飞行	-9573
提高医疗服务	-9574
利用航空航天技术	-9575
▁在人工智能的发展	-9576
随着环保意识的提高	-9577
人工智能在金融领域的应用	-9578
MC	-9579
三代	-9580
始于	-9581
将被	-9582
待遇	-9583
战胜	-9584
星载	-9585
火花	-9586
特茅	-9587
紧凑	-9588
绘制	-9589
美观	-9590
考验	-9591
落实	-9592
150	-9593
UAV	-9594
产品在	-9595
历史中	-9596
或技术	-9597
特茅斯	-9598
程序和	-9599
缘政治	-9600
避免在	-9601
▁请记住	-9602
信用风险	-9603
公共服务	-9604
复杂多变	-9605
并提供更	-9606
情况下的	-9607
操作规程	-9608
是另一个	-9609
涡轮叶片	-9610
电动车的	-9611
紧张局势	-9612
许多方面	-9613
达特茅斯	-9614
还面临着	-9615
这个行业	-9616
防灾减灾	-9617
陶瓷材料	-9618
利用先进的	-9619
帮助决策者	-9620
您可以考虑	-9621
材料和设计	-9622
标志着人类	-9623
评估和反馈	-9624
遇到了哪些	-9625
风险管理和	-9626
在人工智能中	-9627
气候变化研究	-9628
保护用户的隐私	-9629
哈勃太空望远镜	-9630
方面取得了哪些	-9631
有以下几个方面	-9632
NT	-9633
人道	-9634
哪里	-9635
大利	-9636
完美	-9637
想法	-9638
提及	-9639
新药	-9640
既能	-9641
行政	-9642
金星	-9643
oft	-9644
以验证	-9645
判别器	-9646
历史的	-9647
和滥用	-9648
引发的	-9649
引擎的	-9650
或者在	-9651
有能力	-9652
模型对	-9653
的部件	-9654
从而增加	-9655
充电时间	-9656
公众参与	-9657
明显优势	-9658
是否能够	-9659
更加节能	-9660
正在推动	-9661
理论基础	-9662
的安全与	-9663
艺术形式	-9664
设计要求	-9665
边缘计算	-9666
进行深入	-9667
▁如何确保	-9668
和环境保护	-9669
学习和预测	-9670
相关的数据	-9671
人工智能通过	-9672
减少人力成本	-9673
更准确地预测	-9674
进行数据分析	-9675
人工智能带来的	-9676
其对环境的影响	-9677
重要的推动作用	-9678
▁w	-9679
俯仰	-9680
推测	-9681
景观	-9682
月壤	-9683
权和	-9684
潜航	-9685
空降	-9686
缓慢	-9687
近程	-9688
面试	-9689
中保持	-9690
中学习	-9691
为社会	-9692
和航空	-9693
和行星	-9694
完成的	-9695
应该是	-9696
的价格	-9697
附近的	-9698
专业人员	-9699
两个方面	-9700
之间找到	-9701
俄罗斯在	-9702
值得注意	-9703
健康数据	-9704
在航天器	-9705
大大降低	-9706
学习效果	-9707
最新发展	-9708
极端环境	-9709
民用领域	-9710
用于制造	-9711
能够携带	-9712
进行有效	-9713
造成伤害	-9714
飞行状态	-9715
▁神经网络	-9716
不可或缺的	-9717
可以自动化	-9718
有以下几点	-9719
特别是关于	-9720
防空系统的	-9721
面临的最大	-9722
可以通过学习	-9723
在设计过程中	-9724
面临哪些挑战	-9725
可以通过分析大量的	-9726
▁人工智能在医疗健康	-9727
qu	-9728
勇于	-9729
发起	-9730
天津	-9731
把握	-9732
方程	-9733
珠海	-9734
第四	-9735
越南	-9736
Con	-9737
ata	-9738
▁北京	-9739
▁国家	-9740
与管理	-9741
他们还	-9742
国际上	-9743
基因组	-9744
政府对	-9745
电磁波	-9746
的导弹	-9747
统一的	-9748
缺失值	-9749
车辆和	-9750
部署的	-9751
需要时	-9752
高海拔	-9753
ster	-9754
不同类型	-9755
不断推动	-9756
人工干预	-9757
化学物质	-9758
可以携带	-9759
同步轨道	-9760
智能辅导	-9761
这些标准	-9762
这些研究	-9763
革命性的	-9764
为学生提供	-9765
做出相应的	-9766
强度和刚度	-9767
提高效率和	-9768
有助于我们	-9769
核心竞争力	-9770
模式和规律	-9771
物联网设备	-9772
环境的变化	-9773
设计和使用	-9774
一个重要分支	-9775
▁人工智能在自动驾驶	-9776
人工智能在教育领域的	-9777
85	-9778
天的	-9779
抽取	-9780
无疑	-9781
海基	-9782
者号	-9783
重的	-9784
ord	-9785
▁re	-9786
▁调整	-9787
为患者	-9788
升级和	-9789
和深入	-9790
对抗性	-9791
意大利	-9792
我们也	-9793
第三个	-9794
系统来	-9795
预计到	-9796
▁Ori	-9797
一些国家	-9798
产业集群	-9799
创造力和	-9800
动力输出	-9801
可以处理	-9802
各个部分	-9803
图像分割	-9804
文本生成	-9805
汽车企业	-9806
该领域的	-9807
进展如何	-9808
进行分类	-9809
它可以根据	-9810
快速发展的	-9811
监测和预测	-9812
还可以提供	-9813
Amazon	-9814
提升用户体验	-9815
消费者的购买	-9816
远程打击能力	-9817
燃料消耗和碳排放	-9818
航空航天制造技术	-9819
AE	-9820
io	-9821
ow	-9822
》、	-9823
一段	-9824
事实	-9825
千克	-9826
感应	-9827
截至	-9828
矛盾	-9829
飞控	-9830
使用户	-9831
同时在	-9832
品牌和	-9833
处理等	-9834
多目标	-9835
太空舱	-9836
存在着	-9837
密集型	-9838
并降低	-9839
方便地	-9840
更快的	-9841
有趣的	-9842
核弹头	-9843
燃气轮	-9844
第四代	-9845
集团的	-9846
领先的	-9847
GANs	-9848
tell	-9849
作战任务	-9850
多个领域	-9851
安全威胁	-9852
星际旅行	-9853
汽车消费	-9854
沉浸式的	-9855
法律体系	-9856
环保领域	-9857
的时间和	-9858
许多挑战	-9859
各种传感器	-9860
措施来减少	-9861
斯坦福大学	-9862
更好地应对	-9863
飞机的性能	-9864
tellig	-9865
使用生物燃料	-9866
质量管理体系	-9867
人工智能在医疗健康	-9868
▁人工智能的伦理问题	-9869
DS	-9870
GN	-9871
公民	-9872
半年	-9873
吨位	-9874
国土	-9875
志愿	-9876
换代	-9877
排名	-9878
求职	-9879
诗歌	-9880
达成	-9881
近防	-9882
▁再者	-9883
优化的	-9884
作用力	-9885
利用了	-9886
和投资	-9887
在游戏	-9888
型导弹	-9889
如数据	-9890
如通过	-9891
当时的	-9892
成本的	-9893
的一致	-9894
网络和	-9895
规定的	-9896
ance	-9897
上的表现	-9898
主战坦克	-9899
也可能对	-9900
保持联系	-9901
可能涉及	-9902
方法包括	-9903
有人驾驶	-9904
极端温度	-9905
经济社会	-9906
能够识别	-9907
进行通信	-9908
化和智能化	-9909
将人工智能	-9910
提供了宝贵	-9911
提供相关的	-9912
有以下几种	-9913
理解用户的	-9914
进行精确的	-9915
▁问天实验舱	-9916
我们需要确保	-9917
能够更有效地	-9918
▁Origin	-9919
新的航空航天技术	-9920
人工智能系统的决策	-9921
人工智能可以帮助金融机构	-9922
中间	-9923
为其	-9924
但也	-9925
另一	-9926
多的	-9927
护航	-9928
数千	-9929
每种	-9930
海战	-9931
空难	-9932
缓冲	-9933
脱敏	-9934
铁路	-9935
,19	-9936
工作和	-9937
并且在	-9938
引力波	-9939
我国的	-9940
探索的	-9941
方面有	-9942
时间表	-9943
来分析	-9944
等相关	-9945
观察到	-9946
问题上	-9947
▁航空器	-9948
交通系统	-9949
作为一个	-9950
使得人类	-9951
具有重要	-9952
外星生命	-9953
实现了从	-9954
更快速地	-9955
特殊要求	-9956
精准农业	-9957
通过试错	-9958
逻辑回归	-9959
一些重复性	-9960
可能的故障	-9961
航天工程师	-9962
选择适合的	-9963
达特茅斯会议	-9964
▁自动驾驶技术	-9965
航天器和卫星的	-9966
▁轰	-9967
乐观	-9968
五个	-9969
向前	-9970
告知	-9971
查找	-9972
过热	-9973
进攻	-9974
▁高分	-9975
世纪末	-9976
信息等	-9977
安装在	-9978
教育者	-9979
物理和	-9980
理解的	-9981
的消失	-9982
的能源	-9983
结束后	-9984
通过多	-9985
一些传统	-9986
后期处理	-9987
外观设计	-9988
天气状况	-9989
市场数据	-9990
形成一个	-9991
战略意义	-9992
文本中的	-9993
智能手机	-9994
环境友好	-9995
肌肉萎缩	-9996
视觉效果	-9997
资源配置	-9998
这种模式	-9999
鼓励学生	-10000
产品或服务	-10001
以适应新的	-10002
可能遇到的	-10003
汽车制造业	-10004
带来了巨大的	-10005
提供了丰富的	-10006
以下是一些主要	-10007
往往是黑箱操作	-10008
▁航空航天产业的	-10009
▁Networks	-10010
也是一个重要的挑战	-10011
人工智能在自然语言处理	-10012
28	-10013
大赛	-10014
大陆	-10015
孔径	-10016
日产	-10017
波束	-10018
海底	-10019
深蓝	-10020
登机	-10021
营造	-10022
遇难	-10023
静音	-10024
》、《	-10025
一直是	-10026
为人们	-10027
优先级	-10028
医生和	-10029
可以是	-10030
年轻人	-10031
的人类	-10032
自然的	-10033
调度和	-10034
进气道	-10035
光线条件	-10036
外层空间	-10037
太阳活动	-10038
如何克服	-10039
方面存在	-10040
机械部件	-10041
正在开发	-10042
级驱逐舰	-10043
轻量化和	-10044
这种材料	-10045
这种系统	-10046
发动机性能	-10047
如生物燃料	-10048
教育领域的	-10049
资源的依赖	-10050
进行了哪些	-10051
飞机和火箭	-10052
优化飞行路径	-10053
感知周围环境	-10054
起飞和降落时	-10055
以下是一些方法	-10056
现代航空航天工业	-10057
▁人工智能在金融行业的	-10058
32	-10059
af	-10060
上空	-10061
免费	-10062
和歼	-10063
国有	-10064
季度	-10065
它还	-10066
很高	-10067
民族	-10068
滑行	-10069
硬度	-10070
稀疏	-10071
转位	-10072
郑州	-10073
"、"	-10074
SAR	-10075
和国家	-10076
接触到	-10077
无人化	-10078
海军在	-10079
电影和	-10080
的最大	-10081
的研制	-10082
等公司	-10083
▁Pro	-10084
中国航空	-10085
交通领域	-10086
几十年里	-10087
发展战略	-10088
取得突破	-10089
咨询服务	-10090
在设计时	-10091
打击任务	-10092
然后通过	-10093
生活习惯	-10094
的数据和	-10095
紧急救援	-10096
航天器时	-10097
艺术品的	-10098
语音控制	-10099
通信服务	-10100
重要进展	-10101
面临哪些	-10102
航天器需要	-10103
这个领域的	-10104
中的一些应用	-10105
各种传感器和	-10106
国际空间站的	-10107
并提供相应的	-10108
航空业的发展	-10109
随着时间的推移	-10110
提供个性化的治疗方案	-10111
AL	-10112
▁5	-10113
奋斗	-10114
砍伐	-10115
空袭	-10116
耐心	-10117
自足	-10118
闭环	-10119
鸟类	-10120
;5)	-10121
丰富了	-10122
产量和	-10123
合法性	-10124
在空间	-10125
太阳的	-10126
导弹等	-10127
并预测	-10128
建筑物	-10129
恒星的	-10130
打击和	-10131
理解其	-10132
的实现	-10133
等特性	-10134
调整和	-10135
2011	-10136
交通安全	-10137
可以在不	-10138
它是如何	-10139
提高军事	-10140
数据采集	-10141
汽车技术	-10142
环境感知	-10143
生命科学	-10144
的影响力	-10145
行业内的	-10146
这些特征	-10147
重大挑战	-10148
▁燃料效率	-10149
具备良好的	-10150
的数据传输	-10151
设备和系统	-10152
还可以利用	-10153
采取适当的	-10154
飞行的安全性	-10155
能够更好地理解和	-10156
▁透明度和可解释性	-10157
以下是一些具体的例子	-10158
业绩	-10159
导师	-10160
氢气	-10161
莫斯	-10162
遗产	-10163
与实践	-10164
作战的	-10165
创始人	-10166
对航天	-10167
我们在	-10168
政府应	-10169
是目前	-10170
的兴起	-10171
的计算	-10172
等服务	-10173
行人的	-10174
配备有	-10175
2003	-10176
交通情况	-10177
反馈机制	-10178
可以包括	-10179
地球环境	-10180
对话系统	-10181
技术人员	-10182
持续增长	-10183
挑战性和	-10184
推动全球	-10185
提前发现	-10186
确保安全	-10187
等待时间	-10188
进行改进	-10189
北斗系统的	-10190
对社会经济	-10191
提供了更多	-10192
法律和规定	-10193
电动飞机和	-10194
骨骼和肌肉	-10195
具有重要影响	-10196
在太空环境中	-10197
在未来几年内	-10198
重要组成部分	-10199
中扮演什么角色	-10200
人工智能算法的	-10201
强化学习是一种	-10202
能够理解和处理	-10203
个性化的治疗方案	-10204
提供定制化的学习	-10205
的安全性和隐私保护	-10206
美国国家航空航天局	-10207
人工智能技术可以用于	-10208
机器学习是人工智能的	-10209
71	-10210
快的	-10211
线和	-10212
翼龙	-10213
重构	-10214
长安	-10215
-26	-10216
元器件	-10217
则通过	-10218
各国的	-10219
对大量	-10220
德国的	-10221
探讨了	-10222
故障或	-10223
更多人	-10224
武器和	-10225
毫米波	-10226
短期内	-10227
结果的	-10228
通信的	-10229
限制和	-10230
需要与	-10231
出现问题	-10232
制定相关	-10233
它推动了	-10234
尽量减少	-10235
工作流程	-10236
应用户的	-10237
态势感知	-10238
数字孪生	-10239
算法包括	-10240
路线规划	-10241
车道保持	-10242
进行合作	-10243
重要的是	-10244
音乐作品	-10245
主要得益于	-10246
做出更好的	-10247
利益相关者	-10248
和技术进步	-10249
汽车产业的	-10250
自主导航和	-10251
采取了多种	-10252
我们的生活方式	-10253
机器学习和深度学习算法	-10254
eb	-10255
东北	-10256
出发	-10257
快递	-10258
指数	-10259
有几	-10260
电流	-10261
福祉	-10262
蔚来	-10263
讲述	-10264
str	-10265
▁您能	-10266
不公正	-10267
和故障	-10268
战机在	-10269
机会和	-10270
机械师	-10271
的信号	-10272
的探索	-10273
的设备	-10274
等手段	-10275
规划中	-10276
让公众	-10277
设定了	-10278
都符合	-10279
不仅可以	-10280
全球性的	-10281
和安全的	-10282
对飞行器	-10283
必须符合	-10284
数据集的	-10285
新一代的	-10286
智能设备	-10287
治疗建议	-10288
自我学习	-10289
自给自足	-10290
这种合作	-10291
这种能力	-10292
可能会根据	-10293
在图像识别	-10294
您可能需要	-10295
政策的制定	-10296
的成功发射	-10297
▁空气动力学	-10298
深度学习框架	-10299
▁Neural	-10300
未来的航空航天	-10301
都有广泛的应用	-10302
可以帮助金融机构	-10303
▁运	-10304
东航	-10305
亮相	-10306
体能	-10307
倒车	-10308
切割	-10309
变动	-10310
扭矩	-10311
抵达	-10312
更是	-10313
空射	-10314
策划	-10315
舞蹈	-10316
评级	-10317
诊疗	-10318
身心	-10319
▁了解	-10320
使游戏	-10321
和法律	-10322
复杂且	-10323
居民的	-10324
强度高	-10325
扩大了	-10326
推动力	-10327
攻击机	-10328
现在的	-10329
的公司	-10330
的精神	-10331
第一位	-10332
编码器	-10333
要求的	-10334
道路上	-10335
一些新的	-10336
人员培训	-10337
他们可以	-10338
全球气候	-10339
图像数据	-10340
安全气囊	-10341
并行计算	-10342
总设计师	-10343
政策环境	-10344
新能源车	-10345
科普教育	-10346
空间碎片	-10347
计划通过	-10348
长期影响	-10349
隐身能力	-10350
tific	-10351
▁隐私保护	-10352
可持续性和	-10353
和解决方案	-10354
技术的研究	-10355
时间和成本	-10356
监督学习和	-10357
进入了一个	-10358
进行详细的	-10359
预测性维护	-10360
用户的隐私权	-10361
高超音速导弹	-10362
▁人工智能通过	-10363
人工智能在艺术	-10364
我们可能会看到	-10365
更高效的发动机	-10366
领域的发展趋势	-10367
可重复使用的火箭	-10368
防御系统中的应用	-10369
▁航空航天技术的发展	-10370
▁李	-10371
全局	-10372
投诉	-10373
指引	-10374
显了	-10375
篇章	-10376
认真	-10377
连拍	-10378
通话	-10379
▁车辆	-10380
中国家	-10381
以评估	-10382
发生时	-10383
图像中	-10384
将带来	-10385
希望能	-10386
企业合作	-10387
在微重力	-10388
开发智能	-10389
战争中的	-10390
更高级的	-10391
有何特点	-10392
极端天气	-10393
模仿人脑	-10394
竞争激烈	-10395
补贴政策	-10396
计划如何	-10397
让学生在	-10398
详述一下	-10399
请告诉我	-10400
这引发了	-10401
进行交流	-10402
▁1961	-10403
▁卫星通信	-10404
方面的作用	-10405
领域的合作	-10406
▁请分享一些	-10407
提高产品质量	-10408
使用人工智能的	-10409
科学家和工程师	-10410
航空航天技术对	-10411
通过航空航天技术	-10412
乐趣	-10413
光子	-10414
准时	-10415
务院	-10416
原本	-10417
失速	-10418
对此	-10419
情节	-10420
榴弹	-10421
的多	-10422
盲区	-10423
知情	-10424
碳中	-10425
视力	-10426
铸造	-10427
韦伯	-10428
001	-10429
不仅是	-10430
基地的	-10431
平衡点	-10432
的首次	-10433
统计学	-10434
观测到	-10435
销售额	-10436
预设的	-10437
Blue	-10438
STEM	-10439
▁先进的	-10440
常见问题	-10441
探索新的	-10442
攻击能力	-10443
有价值的	-10444
模拟真实	-10445
舒适性和	-10446
设计中的	-10447
这些政策	-10448
预定轨道	-10449
▁虚拟现实	-10450
大大缩短了	-10451
有助于减少	-10452
突破性进展	-10453
自动化系统	-10454
中有许多应用	-10455
国际先进水平	-10456
提高飞行器的	-10457
更深入地理解	-10458
无人机技术的发展	-10459
通过使用机器学习算法	-10460
▁h	-10461
下滑	-10462
仓储	-10463
删除	-10464
吊舱	-10465
增多	-10466
它对	-10467
官兵	-10468
弱点	-10469
插电	-10470
时效	-10471
某一	-10472
泊车	-10473
裂纹	-10474
长达	-10475
▁寻找	-10476
为军事	-10477
出现的	-10478
初学者	-10479
号航母	-10480
和材料	-10481
排水量	-10482
文本中	-10483
是研究	-10484
最近的	-10485
来支持	-10486
来生成	-10487
的行业	-10488
的识别	-10489
等行业	-10490
规模和	-10491
记录器	-10492
锂电池	-10493
需要的	-10494
高水平	-10495
一些公司	-10496
为航天员	-10497
主导地位	-10498
从而增强	-10499
以及进行	-10500
国际间的	-10501
在无人机	-10502
性能要求	-10503
情报分析	-10504
航天公司	-10505
航空物流	-10506
适应新的	-10507
飞行测试	-10508
之间的通信	-10509
他们的学习	-10510
可能引发的	-10511
哪些类型的	-10512
大大提升了	-10513
太空探索中	-10514
客户的问题	-10515
提供了许多	-10516
提高安全性	-10517
材料和结构	-10518
预测和防止	-10519
通过这种方式	-10520
▁希望这些建议	-10521
对全球气候变化	-10522
恶劣天气条件下	-10523
▁航空航天科学在	-10524
▁人工智能在自动驾驶技术	-10525
EL	-10526
不言	-10527
依托	-10528
共识	-10529
内外	-10530
升降	-10531
即在	-10532
只需	-10533
大西	-10534
平民	-10535
延伸	-10536
张衡	-10537
彩虹	-10538
得出	-10539
意愿	-10540
气垫	-10541
物料	-10542
稀缺	-10543
舱门	-10544
为国家	-10545
事件和	-10546
人体的	-10547
他们将	-10548
助推器	-10549
在整个	-10550
年代和	-10551
应遵循	-10552
开展了	-10553
很乐意	-10554
来增加	-10555
潜艇在	-10556
被敌方	-10557
其他领域	-10558
冷战时期	-10559
前沿研究	-10560
成为一名	-10561
我是一位	-10562
投入使用	-10563
显著差异	-10564
的复杂性	-10565
资源浪费	-10566
进行沟通	-10567
通常具有	-10568
Torch	-10569
值得关注的	-10570
准确的决策	-10571
创造出新的	-10572
各种复杂的	-10573
和其他车辆	-10574
技术的成熟	-10575
改变我们的	-10576
调整和优化	-10577
以减少碳排放	-10578
需要多方面的	-10579
人工智能发展的	-10580
人工智能在处理	-10581
的工作可能会被	-10582
通过使用先进的	-10583
Coursera	-10584
人工智能可以利用	-10585
DA	-10586
ly	-10587
仍有	-10588
关怀	-10589
力矩	-10590
南京	-10591
印象	-10592
接管	-10593
曾经	-10594
武汉	-10595
特尔	-10596
筛查	-10597
而喻	-10598
起点	-10599
LED	-10600
lot	-10601
创作的	-10602
噪声和	-10603
巡飞弹	-10604
并避免	-10605
等复杂	-10606
不言而喻	-10607
以便及时	-10608
体系建设	-10609
作战需求	-10610
信息处理	-10611
国际航天	-10612
导航卫星	-10613
数据共享	-10614
法律规制	-10615
语音信号	-10616
这些飞机	-10617
进行精准	-10618
通常使用	-10619
采样返回	-10620
ision	-10621
国家或地区	-10622
是如何影响	-10623
的安全威胁	-10624
人脸识别技术	-10625
数据的质量和	-10626
航空模型制作	-10627
航空电子设备	-10628
提供个性化的服务	-10629
▁现代航空航天技术在	-10630
人工智能可以通过数据分析	-10631
MK	-10632
OT	-10633
上涨	-10634
人文	-10635
减弱	-10636
占用	-10637
大致	-10638
大队	-10639
姿势	-10640
容器	-10641
德林	-10642
提交	-10643
树立	-10644
清除	-10645
简称	-10646
诸如	-10647
跟上	-10648
钢铁	-10649
防撞	-10650
ack	-10651
omp	-10652
▁丰田	-10653
▁百度	-10654
东方红	-10655
为核心	-10656
升力和	-10657
大西洋	-10658
并保护	-10659
应考虑	-10660
是一门	-10661
是现代	-10662
的整体	-10663
等工作	-10664
购置税	-10665
阿尔法	-10666
飞机上	-10667
高技能	-10668
军事力量	-10669
医疗行业	-10670
可能会因	-10671
密切相关	-10672
恶意软件	-10673
技术领域	-10674
掌握知识	-10675
数据驱动	-10676
更加智能	-10677
权益保护	-10678
正确使用	-10679
社会经济	-10680
语音输入	-10681
适应不同	-10682
长期驻留	-10683
需要特别	-10684
可以实现对	-10685
和行为模式	-10686
带来的挑战	-10687
汽车零部件	-10688
还需要进行	-10689
在太空中进行	-10690
应该由谁负责	-10691
是一个复杂而	-10692
最新研究成果	-10693
航空公司的运营	-10694
减免	-10695
刚性	-10696
反恐	-10697
拦阻	-10698
撰写	-10699
机舱	-10700
皇家	-10701
英语	-10702
颠簸	-10703
。4)	-10704
以及其	-10705
但它们	-10706
和网络	-10707
国务院	-10708
在智能	-10709
对传统	-10710
明显的	-10711
是由于	-10712
模型中	-10713
的复杂	-10714
艺术的	-10715
还应该	-10716
这是一	-10717
银行和	-10718
也越来越	-10719
借款人的	-10720
同时也能	-10721
在月球上	-10722
开发人员	-10723
我们必须	-10724
无法完全	-10725
自动控制	-10726
解决这些	-10727
道德责任	-10728
防御体系	-10729
需要掌握	-10730
风云三号	-10731
飞行事故	-10732
飞行距离	-10733
▁1957	-10734
他们的工作	-10735
到达目的地	-10736
客户的需求	-10737
成功的案例	-10738
提供足够的	-10739
教学内容和	-10740
还需要根据	-10741
▁有没有一些	-10742
产生积极影响	-10743
做出更明智的	-10744
可以用于制造	-10745
地面控制中心	-10746
有更多的时间	-10747
生命保障系统	-10748
提高飞行安全性	-10749
这些技术的发展	-10750
需要具备良好的	-10751
发挥着重要的作用	-10752
▁现代航空航天工业	-10753
人工智能在教育领域的应用	-10754
MT	-10755
PL	-10756
ct	-10757
书中	-10758
实训	-10759
投顾	-10760
拆解	-10761
杂志	-10762
赫兹	-10763
迫使	-10764
与预测	-10765
和隐私	-10766
地球和	-10767
对科学	-10768
干扰和	-10769
开创了	-10770
所有权	-10771
改进型	-10772
极端的	-10773
爱国者	-10774
状况和	-10775
等新型	-10776
选择了	-10777
问题等	-10778
▁在使用	-10779
▁在进行	-10780
一种方法	-10781
上取得了	-10782
也得到了	-10783
以更好地	-10784
决策提供	-10785
学习如何	-10786
探测距离	-10787
气动布局	-10788
电力供应	-10789
的智能化	-10790
系统性能	-10791
自动调节	-10792
航天飞行	-10793
这是中国	-10794
▁为了确保	-10795
也可以提高	-10796
人工智能为	-10797
创新和进步	-10798
可能的问题	-10799
复合材料等	-10800
大大减少了	-10801
太空资源的	-10802
挑战和限制	-10803
是如何克服	-10804
有助于提升	-10805
检测和预防	-10806
的历史发展	-10807
资源的消耗	-10808
预测和预防	-10809
人工智能产品	-10810
计算机辅助设计	-10811
提供个性化的推荐	-10812
航空航天技术也在	-10813
▁人工智能在数据分析	-10814
主观	-10815
六代	-10816
在此	-10817
州的	-10818
巡检	-10819
沃森	-10820
短板	-10821
飞艇	-10822
中起到	-10823
制定的	-10824
发射后	-10825
和物流	-10826
国际法	-10827
性质和	-10828
的融合	-10829
相机的	-10830
精神和	-10831
组织和	-10832
观众的	-10833
让我们	-10834
语料库	-10835
进行更	-10836
作为中国	-10837
在实战中	-10838
始终保持	-10839
它们能够	-10840
安全意识	-10841
就业岗位	-10842
承担责任	-10843
火力支援	-10844
环保材料	-10845
相比传统	-10846
联合作战	-10847
航天发射	-10848
这些任务	-10849
进而影响	-10850
避免过度	-10851
重复性和	-10852
需要明确	-10853
▁2018	-10854
小时不间断	-10855
探索宇宙的	-10856
数据处理和	-10857
模拟和预测	-10858
详细介绍了	-10859
命名实体识别	-10860
最新研究进展	-10861
有哪些常见的	-10862
解决这些挑战	-10863
▁人工智能伦理	-10864
学生的学习数据	-10865
有多方面的影响	-10866
航空航天公司的	-10867
航空航天安全与	-10868
国际航空航天法规	-10869
▁人工智能可以通过以下方式	-10870
PO	-10871
▁a	-10872
一台	-10873
倡导	-10874
农药	-10875
对外	-10876
将与	-10877
时机	-10878
查阅	-10879
水冰	-10880
留下	-10881
阐述	-10882
首批	-10883
事件中	-10884
动力和	-10885
叙利亚	-10886
感受到	-10887
方向的	-10888
清晰度	-10889
的操作	-10890
耐用的	-10891
项目和	-10892
aymo	-10893
其他问题	-10894
创建一个	-10895
智能系统	-10896
更精确地	-10897
气动外形	-10898
气象数据	-10899
空域管理	-10900
系外行星	-10901
自主学习	-10902
航班延误	-10903
踏上月球	-10904
这个阶段	-10905
通过结合	-10906
▁你能给我	-10907
▁国际合作	-10908
▁推荐系统	-10909
市场的影响	-10910
的使用寿命	-10911
体现了中国在	-10912
无人机和卫星	-10913
火箭发动机的	-10914
预测的准确性	-10915
▁人工智能在工业生产	-10916
航空航天技术可以提供	-10917
DR	-10918
亲自	-10919
会有	-10920
受益	-10921
园区	-10922
教程	-10923
桥梁	-10924
水雷	-10925
而异	-10926
艰苦	-10927
运维	-10928
重返	-10929
阴影	-10930
out	-10931
▁设立	-10932
与用户	-10933
之所以	-10934
仪器的	-10935
它利用	-10936
对其他	-10937
的一项	-10938
的车辆	-10939
的转变	-10940
表现为	-10941
辐射和	-10942
部署到	-10943
集成到	-10944
预计在	-10945
3000	-10946
以及这对	-10947
各个部件	-10948
国际标准	-10949
心理素质	-10950
是必要的	-10951
机器人工	-10952
森林砍伐	-10953
模型飞机	-10954
航线规划	-10955
行车安全	-10956
软件开发	-10957
上下文信息	-10958
以下是几个	-10959
创新能力和	-10960
森林覆盖率	-10961
深度学习是	-10962
的工作环境	-10963
▁国际空间站	-10964
公司正在研发	-10965
▁全球航空航天	-10966
任务的顺利进行	-10967
伦理和社会责任	-10968
中发挥着重要作用	-10969
产生了积极的影响	-10970
人工智能需要大量的	-10971
航空航天领域的创新	-10972
76	-10973
MM	-10974
一年	-10975
中程	-10976
会在	-10977
和新	-10978
而出	-10979
香港	-10980
CPU	-10981
DAR	-10982
IAT	-10983
事件的	-10984
化进程	-10985
和全球	-10986
和考试	-10987
在这种	-10988
并利用	-10989
并实现	-10990
并执行	-10991
电离层	-10992
的认识	-10993
科技在	-10994
组织的	-10995
也面临着	-10996
在火星上	-10997
在空间站	-10998
地理位置	-10999
敌方目标	-11000
日益增长	-11001
最新技术	-11002
民航业的	-11003
直升机在	-11004
碳排放量	-11005
计算效率	-11006
达到预期	-11007
这些优势	-11008
金融交易	-11009
和安全标准	-11010
将如何改变	-11011
废弃物处理	-11012
潜在的威胁	-11013
▁请提供一些	-11014
团队合作能力	-11015
并制定相应的	-11016
有哪些具体的	-11017
清洗和预处理	-11018
配备了先进的	-11019
▁人工智能正在	-11020
无人驾驶飞机和	-11021
航空航天项目的	-11022
可以提高生产效率	-11023
vi	-11024
▁王	-11025
不够	-11026
工资	-11027
急救	-11028
敌对	-11029
格斗	-11030
浓度	-11031
源于	-11032
滑跃	-11033
继承	-11034
绩效	-11035
老化	-11036
艾伦	-11037
视线	-11038
试射	-11039
话语	-11040
通行	-11041
阈值	-11042
ers	-11043
ive	-11044
▁我们	-11045
▁控制	-11046
▁火星	-11047
▁鼓励	-11048
和原理	-11049
在一些	-11050
应加强	-11051
拍摄的	-11052
提取出	-11053
毅力号	-11054
的态度	-11055
的网络	-11056
等应用	-11057
观测和	-11058
载弹量	-11059
亚马逊的	-11060
如何有效	-11061
张衡一号	-11062
必须具备	-11063
情感识别	-11064
战场信息	-11065
行为分析	-11066
运输机的	-11067
长途飞行	-11068
▁预测分析	-11069
交通信号灯	-11070
工具和设备	-11071
确保飞机在	-11072
通过不断的	-11073
降低了成本	-11074
▁电动汽车的	-11075
人力资源管理	-11076
可以通过使用	-11077
提高燃料效率	-11078
导航和定位系统	-11079
方面有哪些具体	-11080
隐私和数据保护	-11081
▁航空航天系统的	-11082
北斗卫星导航系统	-11083
▁航空航天科学在军事	-11084
主要包括以下几个步骤	-11085
提供个性化的学习体验	-11086
▁请解释一下人工智能在	-11087
上有	-11088
业界	-11089
仓库	-11090
仿生	-11091
冬季	-11092
奉献	-11093
姆斯	-11094
攻防	-11095
李世	-11096
比对	-11097
简洁	-11098
联动	-11099
重组	-11100
yst	-11101
▁上海	-11102
▁通信	-11103
便利和	-11104
分析师	-11105
姿态和	-11106
故障和	-11107
教育与	-11108
方向盘	-11109
的深度	-11110
红外线	-11111
背景和	-11112
设施和	-11113
通常在	-11114
重量轻	-11115
非玩家	-11116
▁在军事	-11117
▁超音速	-11118
人性化的	-11119
使用效率	-11120
共享资源	-11121
几种方式	-11122
帮助农民	-11123
恐怖主义	-11124
操控性能	-11125
教育质量	-11126
更加真实	-11127
维护保养	-11128
能源需求	-11129
航空器在	-11130
诊断结果	-11131
质量检测	-11132
这种变化	-11133
严重的后果	-11134
为人工智能	-11135
国家航天局	-11136
如何在保证	-11137
开辟了新的	-11138
提高汽车的	-11139
经济的增长	-11140
航空管理局	-11141
训练和优化	-11142
通过对大量	-11143
需要更多的	-11144
风险评估和	-11145
人工神经网络	-11146
▁数据隐私问题	-11147
自动驾驶汽车在	-11148
还可以帮助我们	-11149
telligence	-11150
FP	-11151
今年	-11152
伽马	-11153
分工	-11154
平行	-11155
引人	-11156
法案	-11157
线条	-11158
老师	-11159
370	-11160
万美元	-11161
为实现	-11162
互操作	-11163
使车辆	-11164
和执行	-11165
大小和	-11166
如何被	-11167
对飞行	-11168
旅行者	-11169
架飞机	-11170
模型时	-11171
热处理	-11172
的可能	-11173
可以直接	-11174
可以获得	-11175
同时确保	-11176
大幅提高	-11177
安全可靠	-11178
对于理解	-11179
对其进行	-11180
您还可以	-11181
技术问题	-11182
控制能力	-11183
提前预警	-11184
更加精准	-11185
机动能力	-11186
碰撞测试	-11187
科学理论	-11188
逻辑推理	-11189
雷达技术	-11190
需要持续	-11191
下面是一些	-11192
了解并遵守	-11193
地区的军事	-11194
处理大规模	-11195
数据分析和	-11196
数据分析师	-11197
短的时间内	-11198
确保其符合	-11199
神经网络等	-11200
空间望远镜	-11201
许多重要的	-11202
设计与建造	-11203
非玩家角色	-11204
我们可以使用	-11205
提高了飞机的	-11206
有几个重要的	-11207
▁航空航天技术对	-11208
如果人工智能系统	-11209
未来航空航天技术	-11210
根据每个学生的学习	-11211
通过使用人工智能技术	-11212
up	-11213
一线	-11214
争端	-11215
公安	-11216
断裂	-11217
星间	-11218
端到	-11219
脱颖	-11220
论证	-11221
踏板	-11222
其次是	-11223
和美国	-11224
山东舰	-11225
接收机	-11226
明确了	-11227
的健康	-11228
的科研	-11229
行驶时	-11230
重力和	-11231
▁发动机	-11232
交互方式	-11233
信用评估	-11234
关键部件	-11235
协同发展	-11236
奥尔德林	-11237
探测能力	-11238
旨在通过	-11239
激活函数	-11240
燃烧燃料	-11241
燃烧过程	-11242
综合运用	-11243
能源系统	-11244
观测数据	-11245
讲述一下	-11246
近地轨道	-11247
送上月球	-11248
飞行器时	-11249
Model	-11250
产品的质量	-11251
以多种方式	-11252
其他车辆和	-11253
和环境影响	-11254
培养他们的	-11255
帮助飞行员	-11256
电动自行车	-11257
的技术水平	-11258
确保飞行器	-11259
航空摄影中	-11260
人工智能产业	-11261
如复合材料和	-11262
这种技术可以	-11263
在自然语言处理	-11264
就业市场的影响	-11265
未来的发展方向	-11266
法律和道德问题	-11267
诊断和治疗决策	-11268
并采取相应的措施	-11269
▁人工智能在制造业	-11270
方面发挥了重要作用	-11271
深度学习在人工智能	-11272
面临的主要挑战包括	-11273
中扮演着至关重要的角色	-11274
MQ	-11275
hi	-11276
ix	-11277
仍在	-11278
同行	-11279
国民	-11280
您对	-11281
按时	-11282
此后	-11283
沙漠	-11284
特效	-11285
电控	-11286
空地	-11287
见过	-11288
诉讼	-11289
诱饵	-11290
转动	-11291
选手	-11292
fli	-11293
与创新	-11294
书籍和	-11295
保持了	-11296
信任和	-11297
在传输	-11298
将改变	-11299
指导和	-11300
每个人	-11301
流程和	-11302
的压力	-11303
相对论	-11304
等重要	-11305
芯片的	-11306
高品质	-11307
flix	-11308
为了实现	-11309
人们开始	-11310
从而避免	-11311
以及使用	-11312
任何地方	-11313
可以防止	-11314
吸引更多	-11315
场景下的	-11316
基本理论	-11317
奠定基础	-11318
如何支持	-11319
环保要求	-11320
甚至可能	-11321
系统需要	-11322
行业标准	-11323
超过音速	-11324
通信网络	-11325
道路标志	-11326
预测能力	-11327
驾驶者的	-11328
ystem	-11329
人类的语言	-11330
你可以使用	-11331
公平性问题	-11332
困难和挑战	-11333
在军事领域	-11334
导航系统和	-11335
意味着什么	-11336
新一代飞机	-11337
机器人工程	-11338
非常有帮助	-11339
处于领先地位	-11340
如何帮助我们	-11341
这可以通过使用	-11342
▁中国新能源汽车	-11343
97	-11344
Li	-11345
不过	-11346
产物	-11347
优良	-11348
停留	-11349
军舰	-11350
制裁	-11351
场地	-11352
基站	-11353
尊严	-11354
庞大	-11355
情景	-11356
接着	-11357
海航	-11358
深厚	-11359
祝您	-11360
窃取	-11361
诵芬	-11362
过高	-11363
送往	-11364
震动	-11365
上存在	-11366
光线和	-11367
包括在	-11368
可信度	-11369
和地球	-11370
和导航	-11371
地面的	-11372
型号的	-11373
太赫兹	-11374
好奇号	-11375
实施的	-11376
建设中	-11377
机身和	-11378
正在被	-11379
环保性	-11380
的突破	-11381
端到端	-11382
精准度	-11383
级航母	-11384
航展上	-11385
该技术	-11386
运行和	-11387
顾诵芬	-11388
lock	-11389
临床试验	-11390
从而优化	-11391
内部结构	-11392
冷却系统	-11393
地区安全	-11394
天气情况	-11395
对环境和	-11396
差分隐私	-11397
数据加密	-11398
环保因素	-11399
科技实力	-11400
科技领域	-11401
脱颖而出	-11402
飞机维修	-11403
是如何实现	-11404
▁无人机技术	-11405
▁神舟十三号	-11406
减少噪音污染	-11407
减少环境污染	-11408
希望这些信息	-11409
并采取适当的	-11410
成为了第一个	-11411
美国航天飞机	-11412
航天科技集团	-11413
速度和准确性	-11414
人工智能的普及	-11415
▁在航空航天系统	-11416
人工智能系统应该	-11417
我们可以期待更多	-11418
自然语言处理等领域	-11419
ou	-11420
与其	-11421
与前	-11422
争取	-11423
伯特	-11424
偏向	-11425
减震	-11426
司法	-11427
各有	-11428
和谐	-11429
备受	-11430
我将	-11431
损耗	-11432
斯基	-11433
每天	-11434
沿线	-11435
涵道	-11436
疏散	-11437
约翰	-11438
编制	-11439
至于	-11440
致命	-11441
重塑	-11442
靠近	-11443
360	-11444
API	-11445
ass	-11446
int	-11447
了解其	-11448
低轨道	-11449
决策中	-11450
多学科	-11451
并提出	-11452
拍摄出	-11453
更接近	-11454
最优解	-11455
来自于	-11456
样本的	-11457
毕业生	-11458
现代的	-11459
的关注	-11460
的执行	-11461
经验的	-11462
语音和	-11463
较强的	-11464
预测性	-11465
▁在当前	-11466
医疗设备	-11467
卫星图像	-11468
和颗粒物	-11469
拦截能力	-11470
现代汽车	-11471
用户反馈	-11472
重新评估	-11473
不断学习和	-11474
事业的发展	-11475
分类和回归	-11476
处理复杂的	-11477
有很多应用	-11478
的学习体验	-11479
能够更快地	-11480
预测和优化	-11481
飞行模拟器	-11482
以确保航天器	-11483
决策的准确性	-11484
更准确地评估	-11485
第一次世界大战	-11486
tificial	-11487
相关产业链的发展	-11488
▁在航空航天系统的	-11489
包括但不限于以下几点	-11490
倡议	-11491
制约	-11492
卡罗	-11493
增材	-11494
多方	-11495
换装	-11496
放置	-11497
敏捷	-11498
沉积	-11499
较长	-11500
那样	-11501
动力源	-11502
填补了	-11503
李世石	-11504
来模拟	-11505
的发现	-11506
的稳定	-11507
的重量	-11508
着陆器	-11509
该项目	-11510
适用的	-11511
信息系统	-11512
可以学习	-11513
型核潜艇	-11514
太空资源	-11515
家庭成员	-11516
是否具有	-11517
显著增强	-11518
显著降低	-11519
更侧重于	-11520
生产方式	-11521
登陆火星	-11522
等一系列	-11523
个性化教育	-11524
指挥和控制	-11525
提供了哪些	-11526
环保和节能	-11527
电子战系统	-11528
经验丰富的	-11529
这也是一个	-11530
阿波罗计划	-11531
的安全和隐私	-11532
精确打击能力	-11533
人工智能的伦理	-11534
的航空航天材料	-11535
▁陈	-11536
一位	-11537
互信	-11538
伪造	-11539
冰川	-11540
加上	-11541
加装	-11542
子集	-11543
家电	-11544
层和	-11545
您能	-11546
签订	-11547
线路	-11548
院校	-11549
▁培养	-11550
▁法律	-11551
也开始	-11552
制空权	-11553
如高温	-11554
已成为	-11555
并分析	-11556
急刹车	-11557
我们将	-11558
最高的	-11559
来判断	-11560
母舰的	-11561
渗透率	-11562
热气球	-11563
特性的	-11564
研发了	-11565
等指标	-11566
管理者	-11567
解决的	-11568
▁在金融	-11569
产品推荐	-11570
地缘政治	-11571
垃圾邮件	-11572
就业结构	-11573
市场准入	-11574
市场动态	-11575
技术研究	-11576
指挥中心	-11577
提取特征	-11578
算法进行	-11579
行业发展	-11580
需要加强	-11581
▁1981	-11582
▁通过采取	-11583
为用户提供	-11584
具有高强度	-11585
和决策支持	-11586
复杂的数据	-11587
开发和维护	-11588
的客户服务	-11589
的研究领域	-11590
行驶过程中	-11591
错误的决策	-11592
领域的一些	-11593
tional	-11594
不公平的结果	-11595
合作伙伴关系	-11596
展示了中国在	-11597
等方面的知识	-11598
还可以应用于	-11599
这些系统可以	-11600
基于人工智能的	-11601
智能家居系统的	-11602
自动驾驶车辆的	-11603
起着重要的作用	-11604
▁人工智能在艺术	-11605
为了解决这个问题	-11606
人工智能正在改变	-11607
41	-11608
og	-11609
东海	-11610
伽利	-11611
净化	-11612
坠落	-11613
感染	-11614
支线	-11615
演进	-11616
种子	-11617
▁增加	-11618
▁经济	-11619
代表性	-11620
任务是	-11621
决策时	-11622
小型化	-11623
改进的	-11624
政府在	-11625
更新和	-11626
来决定	-11627
的重视	-11628
等挑战	-11629
赛车的	-11630
选择在	-11631
▁你能否	-11632
为人类的	-11633
大气环境	-11634
学习资源	-11635
对大量的	-11636
批量生产	-11637
教学策略	-11638
显著成就	-11639
核武器的	-11640
汽车维修	-11641
疫情防控	-11642
相似之处	-11643
能够获得	-11644
自动识别	-11645
蓝色起源	-11646
这些知识	-11647
这是一款	-11648
销售趋势	-11649
不确定性和	-11650
个人隐私的	-11651
发展中国家	-11652
尤其是对于	-11653
日常生活中	-11654
检测和识别	-11655
独特的优势	-11656
等多方面的	-11657
缺乏透明度	-11658
在训练过程中	-11659
在这个过程中	-11660
恶劣天气条件	-11661
▁空中交通管理	-11662
人工智能在法律	-11663
可以采取以下措施	-11664
对航空航天行业的	-11665
中的应用主要体现在以下几个方面	-11666
CL	-11667
SD	-11668
公布	-11669
几十	-11670
喷嘴	-11671
图纸	-11672
平滑	-11673
并能	-11674
心率	-11675
指向	-11676
活塞	-11677
热能	-11678
聚变	-11679
薪酬	-11680
颠覆	-11681
高清	-11682
▁测试	-11683
▁能源	-11684
与世界	-11685
与教育	-11686
低功耗	-11687
可控性	-11688
和贡献	-11689
市场对	-11690
并促进	-11691
推荐的	-11692
来检测	-11693
灵感和	-11694
第一颗	-11695
讨论了	-11696
较好的	-11697
错误或	-11698
雷达波	-11699
音乐和	-11700
IATA	-11701
▁飞行器	-11702
一大挑战	-11703
业的应用	-11704
中的优势	-11705
互联互通	-11706
从而促进	-11707
全球化的	-11708
学习体验	-11709
更换机油	-11710
机器人和	-11711
水资源的	-11712
洲际导弹	-11713
积极推动	-11714
规章制度	-11715
还可以在	-11716
道德规范	-11717
高强度钢	-11718
▁材料选择	-11719
▁美国海军	-11720
个人数据时	-11721
中的应用对	-11722
各种类型的	-11723
和应用场景	-11724
教育资源的	-11725
是一大挑战	-11726
更轻的材料	-11727
的研究方向	-11728
相较于传统	-11729
这可能引发	-11730
人类对太空的	-11731
优势和局限性	-11732
在某些情况下	-11733
对社会的影响	-11734
的方式有很多	-11735
进一步推动了	-11736
进一步提升了	-11737
当人工智能系统	-11738
燃料消耗和排放	-11739
并采取相应的措施来	-11740
人工智能技术可以帮助	-11741
航空航天技术可以用于	-11742
临时	-11743
仅仅	-11744
俄乌	-11745
俱乐	-11746
分数	-11747
向我	-11748
和非	-11749
它会	-11750
容纳	-11751
干涉	-11752
开关	-11753
跨界	-11754
轻便	-11755
面貌	-11756
ram	-11757
亚音速	-11758
以维持	-11759
伽利略	-11760
在购买	-11761
强化了	-11762
教练机	-11763
是提高	-11764
更有效	-11765
机动车	-11766
清晰地	-11767
清洁和	-11768
的数量	-11769
相机和	-11770
系统将	-11771
超低空	-11772
错误和	-11773
保护数据	-11774
信号处理	-11775
动力飞行	-11776
多样化和	-11777
实时分析	-11778
提高公众	-11779
操作程序	-11780
更新换代	-11781
的可靠性	-11782
研究团队	-11783
这些卫星	-11784
这些项目	-11785
进行详细	-11786
高新技术	-11787
▁Zero	-11788
▁复合材料	-11789
了解最新的	-11790
可能会成为	-11791
在环境保护	-11792
无人机系统	-11793
更加高效和	-11794
模型的参数	-11795
深度学习等	-11796
直接关系到	-11797
纯电动汽车	-11798
耐腐蚀性能	-11799
苏联宇航员	-11800
遵守相关的	-11801
技术可以帮助	-11802
的重要里程碑	-11803
航空运输协会	-11804
成为一个重要的	-11805
未来航空航天技术的发展	-11806
46	-11807
中将	-11808
变轨	-11809
后方	-11810
文昌	-11811
深层	-11812
直播	-11813
破解	-11814
羲和	-11815
觉得	-11816
证实	-11817
超出	-11818
:1.	-11819
▁然后	-11820
上具有	-11821
和海洋	-11822
和能力	-11823
在地面	-11824
在高速	-11825
心理学	-11826
您应该	-11827
损坏或	-11828
文本的	-11829
是利用	-11830
的区域	-11831
的样本	-11832
雷达在	-11833
▁在拍摄	-11834
不利影响	-11835
信号传输	-11836
基础研究	-11837
处于良好	-11838
安全距离	-11839
带来哪些	-11840
废物处理	-11841
操作流程	-11842
无人作战	-11843
更加环保	-11844
环保标准	-11845
知识表示	-11846
空中力量	-11847
紧急制动	-11848
航线网络	-11849
许多国家	-11850
这一系列	-11851
这些实验	-11852
这些设计	-11853
通过监测	-11854
长征七号	-11855
防御策略	-11856
预警机的	-11857
充分考虑到	-11858
和决策制定	-11859
在设计阶段	-11860
学生的问题	-11861
巡航导弹的	-11862
市场趋势和	-11863
游戏开发者	-11864
的安全距离	-11865
的神经网络	-11866
科学的发展	-11867
等关键技术	-11868
管理和控制	-11869
详细的信息	-11870
进一步优化	-11871
可以更有效地	-11872
可以通过优化	-11873
客户满意度和	-11874
提高学习效果	-11875
旅游业的发展	-11876
消费者的需求	-11877
用户可以通过	-11878
的技术创新和	-11879
在极端环境下的	-11880
联邦航空管理局	-11881
▁航空航天制造业	-11882
▁航空航天法规和政策	-11883
阿姆斯特朗成为第一个	-11884
飞行器的性能和安全性	-11885
南航	-11886
博弈	-11887
宽度	-11888
封装	-11889
扎实	-11890
日程	-11891
有益	-11892
液氢	-11893
游客	-11894
炮的	-11895
结冰	-11896
血压	-11897
较差	-11898
-50	-11899
EAS	-11900
are	-11901
为解决	-11902
和运输	-11903
在法律	-11904
学习者	-11905
开普勒	-11906
方法来	-11907
流畅的	-11908
相匹配	-11909
科研站	-11910
软硬件	-11911
输入的	-11912
-130	-11913
2014	-11914
▁在处理	-11915
交通效率	-11916
例如智能	-11917
化学反应	-11918
太空飞行	-11919
定位服务	-11920
工作方式	-11921
工程师和	-11922
往往需要	-11923
液体燃料	-11924
物流配送	-11925
电力系统	-11926
电气系统	-11927
的行为和	-11928
辅助医生	-11929
辅助驾驶	-11930
▁为了应对	-11931
▁质量控制	-11932
对气候变化	-11933
无人机可以	-11934
有哪些常见	-11935
核动力航母	-11936
照片和视频	-11937
结构和材料	-11938
被黑客攻击	-11939
这将极大地	-11940
国际合作项目	-11941
更加智能化和	-11942
自然语言理解	-11943
航空发动机的	-11944
计算机视觉和	-11945
隐私和安全问题	-11946
十三	-11947
参赛	-11948
安静	-11949
折叠	-11950
新颖	-11951
本田	-11952
测距	-11953
眼睛	-11954
还对	-11955
这给	-11956
违约	-11957
陆战	-11958
▁宇宙	-11959
从设计	-11960
和中国	-11961
它具有	-11962
年以来	-11963
影响其	-11964
抗冲击	-11965
无人艇	-11966
是指在	-11967
是未来	-11968
测试集	-11969
航线和	-11970
蓄电池	-11971
port	-11972
▁Con	-11973
▁pro	-11974
发出警报	-11975
名宇航员	-11976
商业机会	-11977
如果发现	-11978
操作失误	-11979
教学方式	-11980
无线通信	-11981
更倾向于	-11982
温度变化	-11983
游戏内容	-11984
研究项目	-11985
科研团队	-11986
科研工作	-11987
第三定律	-11988
这些活动	-11989
进行智能	-11990
长征系列	-11991
飞机重量	-11992
高度重视	-11993
减少飞机的	-11994
提供强大的	-11995
是如何通过	-11996
材料的使用	-11997
法律和伦理	-11998
航空器设计	-11999
艺术和娱乐	-12000
预测和应对	-12001
飞机设计和	-12002
高度和速度	-12003
▁神舟十四号	-12004
在使用过程中	-12005
在太空任务中	-12006
极端环境下的	-12007
驾驶辅助系统	-12008
产生了积极影响	-12009
发挥了关键作用	-12010
▁航空航天法律和政策	-12011
人工智能还可以帮助我们	-12012
前线	-12013
四大	-12014
外资	-12015
显微	-12016
电缆	-12017
离合	-12018
送到	-12019
遥测	-12020
骨干	-12021
不平衡	-12022
业务的	-12023
体系中	-12024
分类器	-12025
变速箱	-12026
和工具	-12027
和工程	-12028
基础的	-12029
处理的	-12030
已有的	-12031
并获得	-12032
控制权	-12033
机翼和	-12034
来源于	-12035
来监测	-12036
沃尔沃	-12037
的建立	-12038
相似的	-12039
碳足迹	-12040
预计将	-12041
飞机等	-12042
主要基于	-12043
交易数据	-12044
和高效的	-12045
异常检测	-12046
机械工程	-12047
确保只有	-12048
空气动力	-12049
舒适度和	-12050
航空法规	-12051
这些趋势	-12052
远程教育	-12053
重大贡献	-12054
▁安全问题	-12055
▁无人机在	-12056
人工智能等	-12057
只是一部分	-12058
和噪音污染	-12059
噪音和排放	-12060
必须考虑到	-12061
推进系统和	-12062
▁请总结一下	-12063
废弃物的产生	-12064
提供决策支持	-12065
提供数据支持	-12066
是如何工作的	-12067
航空航天大学	-12068
有源相控阵雷达	-12069
航空航天工业对	-12070
识别潜在的风险	-12071
采取了哪些措施来	-12072
1/	-12073
la	-12074
一批	-12075
万个	-12076
上了	-12077
也很	-12078
全程	-12079
共赢	-12080
兼顾	-12081
加注	-12082
地外	-12083
塑性	-12084
天链	-12085
定量	-12086
巴黎	-12087
拖曳	-12088
机理	-12089
自立	-12090
舞台	-12091
逃逸	-12092
add	-12093
分布和	-12094
定制的	-12095
或者是	-12096
所有人	-12097
技术对	-12098
普通人	-12099
权利和	-12100
来保持	-12101
沉浸感	-12102
注意到	-12103
特殊性	-12104
的全球	-12105
的兴趣	-12106
的水平	-12107
的深入	-12108
的竞争	-12109
第一步	-12110
系统对	-12111
运营商	-12112
100%	-12113
oost	-12114
不断创新	-12115
中的问题	-12116
也取得了	-12117
了大量的	-12118
传统产业	-12119
共同参与	-12120
医学研究	-12121
协同创新	-12122
可以创建	-12123
可解释的	-12124
如何适应	-12125
它提供了	-12126
实时反馈	-12127
数据增强	-12128
有害气体	-12129
特殊需求	-12130
生产工艺	-12131
能源利用	-12132
表现出了	-12133
许多新的	-12134
这些领域	-12135
高可靠性	-12136
▁2017	-12137
▁图像识别	-12138
也需要考虑	-12139
人才培养和	-12140
基础设施的	-12141
将更加广泛	-12142
怎样的角色	-12143
用户的数据	-12144
神舟十三号	-12145
航空技术的	-12146
运营效率和	-12147
飞行速度和	-12148
人工智能也在	-12149
自动驾驶功能	-12150
▁希望以上建议	-12151
人工智能系统时	-12152
未来的太空探索	-12153
私人航天公司的	-12154
非常重要的作用	-12155
可以通过以下方式	-12156
深度学习和机器学习	-12157
▁深度学习在人工智能	-12158
起到了重要的推动作用	-12159
,5	-12160
AX	-12161
▁将	-12162
仍需	-12163
内在	-12164
出动	-12165
单独	-12166
坚定	-12167
客运	-12168
巡洋	-12169
批评	-12170
指纹	-12171
竞技	-12172
航海	-12173
蒙特	-12174
风控	-12175
高等	-12176
鸭翼	-12177
▁An	-12178
▁美军	-12179
会面临	-12180
依赖性	-12181
充电站	-12182
其技术	-12183
如医疗	-12184
并提前	-12185
核力量	-12186
状态的	-12187
的一种	-12188
的形式	-12189
等各种	-12190
这就是	-12191
配备的	-12192
错误率	-12193
▁Ass	-12194
▁航天员	-12195
一些主要	-12196
业务流程	-12197
主要负责	-12198
乘客提供	-12199
也在努力	-12200
减少拥堵	-12201
周边国家	-12202
多元化的	-12203
实现了对	-12204
推荐适合	-12205
民用飞机	-12206
用户提供	-12207
空中客车	-12208
航空事故	-12209
这些资源	-12210
进行处理	-12211
长征二号	-12212
产生大量的	-12213
优势和劣势	-12214
做出了贡献	-12215
制造和维护	-12216
性能和安全	-12217
控制与管理	-12218
提供了可能	-12219
提供重要的	-12220
现代航空的	-12221
的技术支持	-12222
监测和管理	-12223
硬件和软件	-12224
能够在各种	-12225
轻量化设计	-12226
项目的成功	-12227
产品的质量和	-12228
在人工智能的	-12229
我们可以预见	-12230
深空探测任务	-12231
特别是在处理	-12232
Netflix	-12233
医疗领域的应用	-12234
在航空航天工程	-12235
如卷积神经网络	-12236
性能和燃油效率	-12237
更多的就业机会	-12238
系统的正常运行	-12239
语音识别系统的	-12240
人工智能和自动化	-12241
通过卫星遥感技术	-12242
人工智能的发展趋势	-12243
航空航天设计与制造	-12244
88	-12245
An	-12246
GE	-12247
PM	-12248
不易	-12249
入门	-12250
卡尔	-12251
合并	-12252
在新	-12253
地基	-12254
失事	-12255
家族	-12256
放射	-12257
最多	-12258
本国	-12259
权威	-12260
罚款	-12261
酒店	-12262
闻名	-12263
▁医疗	-12264
▁答案	-12265
作出了	-12266
便捷性	-12267
工业的	-12268
技术将	-12269
报告和	-12270
来保证	-12271
气动力	-12272
润滑油	-12273
的战术	-12274
让人们	-12275
设计为	-12276
较小的	-12277
中的影响	-12278
仍然存在	-12279
使得军队	-12280
可能遇到	-12281
国际地位	-12282
如何保持	-12283
它改变了	-12284
数据中心	-12285
显著进步	-12286
来实现的	-12287
模仿人类	-12288
研发成本	-12289
科学技术	-12290
结合使用	-12291
辅助教学	-12292
进行测试	-12293
销售策略	-12294
▁中国空军	-12295
▁莱特兄弟	-12296
▁长征五号	-12297
军事行动的	-12298
北斗系统在	-12299
如何促进了	-12300
有重大影响	-12301
潜在的危险	-12302
环境适应性	-12303
监测和评估	-12304
确保航天器	-12305
科技领域的	-12306
自动化交易	-12307
航空公司在	-12308
从而提前进行	-12309
减少交通事故	-12310
在环保方面的	-12311
工作可能会被	-12312
解决实际问题	-12313
采用更先进的	-12314
其中一项重要的	-12315
变得越来越重要	-12316
模型的泛化能力	-12317
深度学习是一种	-12318
混合动力汽车的	-12319
这在一定程度上	-12320
▁在航空航天工程	-12321
▁数据分析和预测	-12322
航天器的设计和制造	-12323
人工智能可以帮助教师	-12324
人工智能在商业领域的	-12325
ax	-12326
一级	-12327
一轮	-12328
不适	-12329
互相	-12330
凝聚	-12331
号和	-12332
增进	-12333
媲美	-12334
巴兹	-12335
底层	-12336
拉动	-12337
推送	-12338
池化	-12339
淘汰	-12340
湍流	-12341
电信	-12342
界限	-12343
终身	-12344
设想	-12345
350	-12346
▁朝鲜	-12347
▁高效	-12348
上表现	-12349
关键词	-12350
创业者	-12351
和人员	-12352
和突破	-12353
国家级	-12354
并优化	-12355
或视频	-12356
报告中	-12357
排放物	-12358
提升至	-12359
搭载了	-12360
火花塞	-12361
的法律	-12362
第一代	-12363
等参数	-12364
设定的	-12365
选择的	-12366
银河系	-12367
不被滥用	-12368
个人身份	-12369
中国商飞	-12370
从业人员	-12371
以及优化	-12372
以及提高	-12373
促进全球	-12374
信用评分	-12375
做好准备	-12376
可能改变	-12377
合理安排	-12378
在轨驻留	-12379
它可以在	-12380
工业制造	-12381
成功应用	-12382
显著增加	-12383
电影制作	-12384
的理解和	-12385
的稳定性	-12386
等离子体	-12387
解决方法	-12388
这些差异	-12389
进行教学	-12390
通信能力	-12391
通过增加	-12392
长焦镜头	-12393
从而减少了	-12394
健康的影响	-12395
和数据挖掘	-12396
太空探测器	-12397
导航系统等	-12398
工作效率和	-12399
我们可以从	-12400
消耗大量的	-12401
电子设备和	-12402
的应用前景	-12403
的数据支持	-12404
神舟十五号	-12405
这些数据的	-12406
太空环境中的	-12407
性能和稳定性	-12408
空间科学实验	-12409
等方面的规定	-12410
自主知识产权	-12411
人工智能在未来	-12412
得到了显著提升	-12413
提取有用的信息	-12414
空气动力学性能	-12415
苏联成功发射了	-12416
不可或缺的一部分	-12417
人工智能在工业生产	-12418
▁人工智能技术的发展	-12419
9.	-12420
中科	-12421
偏转	-12422
各大	-12423
后掠	-12424
增速	-12425
宜居	-12426
岛屿	-12427
手工	-12428
机库	-12429
疏忽	-12430
相撞	-12431
科目	-12432
衰减	-12433
西亚	-12434
超导	-12435
跑车	-12436
适配	-12437
都应	-12438
降解	-12439
霹雳	-12440
风力	-12441
餐饮	-12442
黄金	-12443
优缺点	-12444
保护了	-12445
其设计	-12446
副作用	-12447
和结果	-12448
和运行	-12449
国际间	-12450
多层次	-12451
大爆炸	-12452
天文台	-12453
实验柜	-12454
并制定	-12455
插电式	-12456
有多个	-12457
未见过	-12458
照片时	-12459
的调整	-12460
纪录片	-12461
舰队的	-12462
要确保	-12463
课程中	-12464
还具备	-12465
食物的	-12466
验证和	-12467
ilot	-12468
主要原因	-12469
也是一种	-12470
传统燃油	-12471
商业价值	-12472
失业问题	-12473
如何避免	-12474
实现智能	-12475
客户关系	-12476
数据清洗	-12477
气候条件	-12478
确保它们	-12479
航天项目	-12480
西方国家	-12481
训练过程	-12482
语言翻译	-12483
这是人类	-12484
进行远程	-12485
通过观察	-12486
长期发展	-12487
需求分析	-12488
面部表情	-12489
飞机上的	-12490
飞行轨迹	-12491
高温高压	-12492
▁2020	-12493
中国航天员	-12494
准确的信息	-12495
和创新能力	-12496
宇航员需要	-12497
对国际关系	-12498
意义是什么	-12499
有哪些新的	-12500
的技术突破	-12501
自动驾驶和	-12502
隐身战斗机	-12503
飞机在空中	-12504
飞行员训练	-12505
▁个性化推荐	-12506
▁中国空间站	-12507
▁预测性维护	-12508
加强国际合作	-12509
劳动力市场的	-12510
卫星发射中心	-12511
阿姆斯特朗和	-12512
降低能源消耗	-12513
领域中的应用	-12514
潜在的安全威胁	-12515
通过与环境的交互	-12516
提高生产效率和产品质量	-12517
▁人工智能可以通过以下几种方式	-12518
三步	-12519
和可	-12520
喷洒	-12521
回路	-12522
它与	-12523
小于	-12524
性等	-12525
愿景	-12526
截面	-12527
无源	-12528
江苏	-12529
灾后	-12530
炮兵	-12531
高峰	-12532
1.5	-12533
4.0	-12534
▁发展	-12535
优点是	-12536
使人们	-12537
使模型	-12538
历程中	-12539
导引头	-12540
或滥用	-12541
攻击者	-12542
日本和	-12543
是一家	-12544
是美国	-12545
来创建	-12546
的不同	-12547
的改变	-12548
等国家	-12549
精密的	-12550
试飞员	-12551
防止其	-12552
-300	-12553
▁IBM	-12554
▁美国在	-12555
一定影响	-12556
中国民航	-12557
也影响了	-12558
各种问题	-12559
后勤保障	-12560
多种多样	-12561
学习效率	-12562
学习方法	-12563
成功着陆	-12564
成功研制	-12565
更加精确	-12566
燃气轮机	-12567
科技水平	-12568
积极作用	-12569
讨论一下	-12570
财产损失	-12571
进行各种	-12572
问答系统	-12573
风险控制	-12574
他们的数据	-12575
全生命周期	-12576
创新思维和	-12577
国际影响力	-12578
将显著提升	-12579
批判性思维	-12580
更加个性化	-12581
航天活动的	-12582
预测和管理	-12583
▁以上是一些	-12584
▁梦天实验舱	-12585
人工智能研究	-12586
提高飞行安全	-12587
极大地改变了	-12588
载人航天任务	-12589
▁航空航天技术的	-12590
人工智能如何帮助	-12591
理解和生成人类语言	-12592
43	-12593
▁%	-12594
▁张	-12595
不平	-12596
不应	-12597
减缓	-12598
出版	-12599
只要	-12600
声波	-12601
宏观	-12602
屏幕	-12603
布拉	-12604
强风	-12605
时段	-12606
源头	-12607
直觉	-12608
补加	-12609
ang	-12610
rat	-12611
与运营	-12612
但通过	-12613
和产业	-12614
学生在	-12615
定义和	-12616
并解释	-12617
氧化剂	-12618
的企业	-12619
第一架	-12620
纯电动	-12621
维护性	-12622
自卫队	-12623
英国的	-12624
融入到	-12625
超平面	-12626
路径和	-12627
销售和	-12628
-100	-12629
5000	-12630
▁请为我	-12631
一小部分	-12632
上的挑战	-12633
产品开发	-12634
从而导致	-12635
使用情况	-12636
共同推进	-12637
妥善处理	-12638
娱乐体验	-12639
实践能力	-12640
实验结果	-12641
心理状态	-12642
打击目标	-12643
教学资源	-12644
新的发展	-12645
服务能力	-12646
状态下的	-12647
算法优化	-12648
能够保持	-12649
蒸汽弹射	-12650
语音数据	-12651
辐射防护	-12652
还提高了	-12653
这些特点	-12654
这些策略	-12655
通常采用	-12656
道路状况	-12657
驾驶行为	-12658
▁如何提高	-12659
与地球上的	-12660
与导航系统	-12661
个性化治疗	-12662
人类社会的	-12663
反馈和建议	-12664
地球大气层	-12665
大型客机的	-12666
存储和处理	-12667
学习和决策	-12668
操作和维护	-12669
政府和企业	-12670
的应用案例	-12671
需要进一步	-12672
中的发展趋势	-12673
产生什么影响	-12674
以最大程度地	-12675
以确保飞行器	-12676
如果这些数据	-12677
有很大的影响	-12678
采取以下措施	-12679
具有重要的意义	-12680
有着重要的作用	-12681
▁在航空航天科学	-12682
人工智能可能带来的	-12683
帮助我们更好地理解	-12684
是一个重要的伦理问题	-12685
02	-12686
RT	-12687
▁安	-12688
上传	-12689
产出	-12690
以前	-12691
冻结	-12692
古董	-12693
带领	-12694
显得	-12695
浙江	-12696
百分	-12697
评测	-12698
连贯	-12699
阵地	-12700
领军	-12701
tim	-12702
▁培训	-12703
与实际	-12704
便携式	-12705
俱乐部	-12706
和优势	-12707
实现从	-12708
工程的	-12709
必须在	-12710
显示器	-12711
机器的	-12712
级潜艇	-12713
语言和	-12714
赛车手	-12715
集成了	-12716
-500	-12717
充分发挥	-12718
农业领域	-12719
分类问题	-12720
化学成分	-12721
医学专家	-12722
反应能力	-12723
可以了解	-12724
可以展示	-12725
可以监测	-12726
可以获取	-12727
商业应用	-12728
在轨运行	-12729
天文观测	-12730
太阳系的	-12731
定期更新	-12732
氧气供应	-12733
特定任务	-12734
科学原理	-12735
行动计划	-12736
西太平洋	-12737
角度来看	-12738
输入数据	-12739
随着电池	-12740
隐身战机	-12741
▁智能客服	-12742
人工智能时	-12743
他们可能会	-12744
关键技术的	-12745
功能和性能	-12746
可以捕捉到	-12747
安全问题的	-12748
巨大的影响	-12749
建立完善的	-12750
当人工智能	-12751
改进和优化	-12752
游戏的可玩	-12753
燃料的依赖	-12754
的安全隐患	-12755
确保飞机的	-12756
achine	-12757
数据保护条例	-12758
数据隐私问题	-12759
的情况下进行	-12760
高超音速飞行	-12761
中的角色是什么	-12762
发挥更大的作用	-12763
对于人工智能的	-12764
民用领域的应用	-12765
自动驾驶系统的	-12766
中起着重要的作用	-12767
人工智能可以优化	-12768
航空航天安全管理	-12769
方面发挥着重要作用	-12770
航空航天领域的重要	-12771
环境保护和可持续发展	-12772
航空航天技术的发展使得	-12773
48	-12774
95	-12775
ia	-12776
km	-12777
一颗	-12778
充气	-12779
列车	-12780
南亚	-12781
归一	-12782
指的	-12783
收购	-12784
无误	-12785
机床	-12786
科幻	-12787
等国	-12788
老旧	-12789
警示	-12790
读取	-12791
转子	-12792
阿拉	-12793
集合	-12794
vol	-12795
▁宝马	-12796
▁量子	-12797
以外的	-12798
军事和	-12799
和压力	-12800
和快速	-12801
和知识	-12802
和规划	-12803
大气的	-12804
将数据	-12805
层面上	-12806
投入到	-12807
接收器	-12808
是当前	-12809
暴露在	-12810
月球车	-12811
羲和号	-12812
舒适和	-12813
苹果的	-12814
要考虑	-12815
频率和	-12816
2013	-12817
lear	-12818
一旦发现	-12819
不可替代	-12820
他们通过	-12821
优先考虑	-12822
十分广泛	-12823
在飞行器	-12824
垃圾分类	-12825
如何推动	-12826
如果您有	-12827
提高整体	-12828
提高汽车	-12829
更精准的	-12830
服务效率	-12831
正在探索	-12832
水面舰艇	-12833
涉及多个	-12834
电力驱动	-12835
算法偏见	-12836
航空维修	-12837
这些发现	-12838
违规行为	-12839
重大进展	-12840
Waymo	-12841
echno	-12842
▁模型训练	-12843
▁电动飞机	-12844
从而提高其	-12845
如何确保其	-12846
它可以提供	-12847
实时监控和	-12848
尝试不同的	-12849
工具和方法	-12850
成功完成了	-12851
持续学习和	-12852
生产线上的	-12853
用户的问题	-12854
而不仅仅是	-12855
苏联发射了	-12856
预防和应对	-12857
人工智能已经	-12858
有几个关键的	-12859
造成负面影响	-12860
▁Google	-12861
人工智能也可能	-12862
echnolog	-12863
▁AlphaGo	-12864
航空航天制造工艺	-12865
航空航天技术发展	-12866
通过使用人工智能	-12867
▁能否详细解释一下	-12868
NV	-12869
Ne	-12870
两侧	-12871
五大	-12872
以免	-12873
出云	-12874
协定	-12875
可供	-12876
商标	-12877
套件	-12878
对齐	-12879
岛链	-12880
异同	-12881
微弱	-12882
指定	-12883
民众	-12884
清华	-12885
湖北	-12886
纪念	-12887
结论	-12888
美俄	-12889
自转	-12890
设有	-12891
说话	-12892
路标	-12893
辨识	-12894
预订	-12895
首席	-12896
700	-12897
▁伊朗	-12898
▁信息	-12899
▁总结	-12900
▁研发	-12901
▁社会	-12902
▁避免	-12903
了多少	-12904
了解并	-12905
保持对	-12906
发出的	-12907
和平与	-12908
和监管	-12909
在多个	-12910
在提升	-12911
在欧洲	-12912
或进行	-12913
海量的	-12914
物质的	-12915
的升级	-12916
的教育	-12917
第二代	-12918
等部件	-12919
获得的	-12920
规则的	-12921
请详细	-12922
跨领域	-12923
2010	-12924
▁有什么	-12925
不断增长	-12926
与人类的	-12927
他们负责	-12928
全球定位	-12929
关键领域	-12930
军工企业	-12931
卫星进行	-12932
发生故障	-12933
可以改善	-12934
各种方式	-12935
对于未来	-12936
对人类的	-12937
技能水平	-12938
护卫舰的	-12939
提供参考	-12940
政府部门	-12941
星间链路	-12942
正在逐步	-12943
登月计划	-12944
起飞重量	-12945
这个案例	-12946
这种影响	-12947
防范措施	-12948
飞行表演	-12949
高频交易	-12950
Space	-12951
实现自动化	-12952
对飞行安全	-12953
是最重要的	-12954
计算能力和	-12955
设计和技术	-12956
这些领域的	-12957
为我们的生活	-12958
包括机器学习	-12959
可能存在偏见	-12960
可能感兴趣的	-12961
在一定程度上	-12962
收集到的数据	-12963
特别是在面对	-12964
交通事故的发生	-12965
通信和导航系统	-12966
产生多方面的影响	-12967
是实现人工智能的	-12968
人工智能可以通过学习	-12969
LU	-12970
TO	-12971
不懈	-12972
你对	-12973
党员	-12974
勘查	-12975
受众	-12976
地月	-12977
多国	-12978
射频	-12979
年至	-12980
战舰	-12981
机票	-12982
歼击	-12983
米级	-12984
而成	-12985
耐受	-12986
荣誉	-12987
著作	-12988
读者	-12989
追赶	-12990
▁文章	-12991
从一个	-12992
和未来	-12993
在经济	-12994
小时内	-12995
年中国	-12996
推动下	-12997
更先进	-12998
有多大	-12999
氧化碳	-13000
甚至是	-13001
的经济	-13002
的距离	-13003
研发中	-13004
而闻名	-13005
远低于	-13006
ollo	-13007
▁在航天	-13008
了一系列	-13009
侦察任务	-13010
免疫系统	-13011
共同作用	-13012
初创公司	-13013
受到影响	-13014
商业航空	-13015
在飞行前	-13016
大幅降低	-13017
安全事故	-13018
导航设备	-13019
就使用了	-13020
异常交易	-13021
总体来说	-13022
战略决策	-13023
更加重视	-13024
替代人类	-13025
极端条件	-13026
的航空器	-13027
系统如何	-13028
能够同时	-13029
讲解一下	-13030
识别能力	-13031
防护能力	-13032
领域具有	-13033
高效利用	-13034
也可以帮助	-13035
以确保安全	-13036
商业化进程	-13037
基复合材料	-13038
学生的作业	-13039
宇宙飞船的	-13040
帮助艺术家	-13041
成为世界上	-13042
武器系统和	-13043
涉及到许多	-13044
深度学习中	-13045
能够捕捉到	-13046
航天员乘组	-13047
▁Space	-13048
▁在医疗领域	-13049
巨大的潜力和	-13050
新技术的发展	-13051
有着重大影响	-13052
解决复杂问题	-13053
▁能否举例说明	-13054
机器学习的一个	-13055
▁人工智能在商业领域的	-13056
01	-13057
▁西	-13058
人在	-13059
使之	-13060
信念	-13061
剩余	-13062
加坡	-13063
尼米	-13064
履行	-13065
更改	-13066
林业	-13067
沈飞	-13068
激波	-13069
病史	-13070
皮肤	-13071
老式	-13072
舰体	-13073
贴近	-13074
足以	-13075
采矿	-13076
饱和	-13077
-41	-13078
▁Ar	-13079
▁制造	-13080
▁实现	-13081
▁电子	-13082
一次性	-13083
会通过	-13084
侦查和	-13085
决定性	-13086
分析中	-13087
发明了	-13088
和适应	-13089
和限制	-13090
实战中	-13091
我希望	-13092
支持了	-13093
特别能	-13094
百度的	-13095
的学生	-13096
的需要	-13097
知识库	-13098
绕地球	-13099
输入到	-13100
,000	-13101
交通信息	-13102
从而进行	-13103
信贷审批	-13104
其在复杂	-13105
包括技术	-13106
各行各业	-13107
商业决策	-13108
在不同的	-13109
市场调研	-13110
提升整体	-13111
无人系统	-13112
模型制作	-13113
潜力巨大	-13114
的目的是	-13115
管理效率	-13116
自动执行	-13117
航天旅游	-13118
航班计划	-13119
财务状况	-13120
还带动了	-13121
这些课程	-13122
通过收集	-13123
金融市场	-13124
防空能力	-13125
▁空间探索	-13126
地球轨道上	-13127
工业互联网	-13128
有多种应用	-13129
汽车市场的	-13130
的技术难题	-13131
空间实验室	-13132
选择最佳的	-13133
▁在教育领域	-13134
以下几个因素	-13135
以提高飞机的	-13136
使计算机能够	-13137
具体应用案例	-13138
更广泛的应用	-13139
ational	-13140
定期检查和维护	-13141
技术的发展趋势	-13142
新能源汽车市场	-13143
航空航天产品的	-13144
▁请提供一些关于	-13145
航空航天领域中的	-13146
▁北斗卫星导航系统	-13147
人工智能可以提高生产效率	-13148
不是	-13149
业态	-13150
同期	-13151
填充	-13152
径向	-13153
怠速	-13154
技術	-13155
整流	-13156
智力	-13157
机枪	-13158
正当	-13159
水源	-13160
油箱	-13161
消极	-13162
痛点	-13163
翼展	-13164
英里	-13165
衰退	-13166
误伤	-13167
资助	-13168
递归	-13169
长城	-13170
饮料	-13171
▁En	-13172
个体的	-13173
冲击力	-13174
则用于	-13175
受到的	-13176
和活动	-13177
增长点	-13178
多任务	-13179
密度的	-13180
对后续	-13181
尼米兹	-13182
敏感器	-13183
机场和	-13184
气候和	-13185
的地区	-13186
自立自	-13187
辐射的	-13188
2024	-13189
交叉融合	-13190
便利性和	-13191
冗余设计	-13192
减轻重量	-13193
出行体验	-13194
加速度计	-13195
卫星侦察	-13196
可以避免	-13197
商用飞机	-13198
地空导弹	-13199
定位技术	-13200
开放平台	-13201
您是如何	-13202
您的需求	-13203
提高交易	-13204
是如何被	-13205
更加先进	-13206
更加自然	-13207
更远距离	-13208
最常见的	-13209
月球轨道	-13210
有效利用	-13211
模拟飞行	-13212
物体检测	-13213
环保工作	-13214
生产中断	-13215
相关人员	-13216
确保飞行	-13217
管理办法	-13218
考虑使用	-13219
进行快速	-13220
▁知识产权	-13221
▁药物研发	-13222
中国空军在	-13223
从而降低了	-13224
供应链优化	-13225
可以进一步	-13226
导弹的射程	-13227
探测和跟踪	-13228
控制与导航	-13229
提供了坚实	-13230
教师的角色	-13231
材料的性能	-13232
气体的排放	-13233
航空母舰的	-13234
采取一系列	-13235
预防性维护	-13236
关于人工智能	-13237
关键技术突破	-13238
可能会影响到	-13239
的质量和效率	-13240
艺术家的创作	-13241
还有其他问题	-13242
这样可以确保	-13243
进一步提高了	-13244
飞机和火箭的	-13245
▁请解释什么是	-13246
人工智能可以为	-13247
在飞行过程中的	-13248
诊断和治疗方案	-13249
智能家居系统可以	-13250
▁现代航空航天技术的	-13251
di	-13252
入手	-13253
共建	-13254
关节	-13255
句法	-13256
吸波	-13257
基石	-13258
本次	-13259
毁伤	-13260
牵引	-13261
禁飞	-13262
耗时	-13263
股市	-13264
雇佣	-13265
380	-13266
充满了	-13267
先驱者	-13268
发生后	-13269
和海上	-13270
将实现	-13271
延长了	-13272
扩展到	-13273
比传统	-13274
特别的	-13275
起飞前	-13276
车辆与	-13277
运营和	-13278
这一点	-13279
适用性	-13280
速度快	-13281
附加值	-13282
▁10.	-13283
与空间站	-13284
主要依靠	-13285
关键在于	-13286
可以带动	-13287
各种因素	-13288
员工进行	-13289
和使用者	-13290
多功能性	-13291
如美国的	-13292
它是一种	-13293
应急处理	-13294
成功地将	-13295
最佳状态	-13296
治疗方法	-13297
液氧煤油	-13298
游戏环境	-13299
生长情况	-13300
私营企业	-13301
科技突破	-13302
空间技术	-13303
记忆网络	-13304
身体状况	-13305
运作方式	-13306
进行拍摄	-13307
选择使用	-13308
项目团队	-13309
首次发射	-13310
驾驶策略	-13311
▁欺诈检测	-13312
具有里程碑	-13313
决策和规划	-13314
成本和时间	-13315
数据和信息	-13316
未来可能的	-13317
武器装备的	-13318
航天飞机的	-13319
速度和方向	-13320
高分辨率的	-13321
▁航天技术在	-13322
一些航空公司	-13323
可以帮助他们	-13324
实际应用中的	-13325
自主创新能力	-13326
起着重要作用	-13327
这不仅提高了	-13328
模型的准确性和	-13329
的发展趋势是什么	-13330
生产效率和产品质量	-13331
83	-13332
FT	-13333
LC	-13334
一支	-13335
不变	-13336
但这	-13337
到来	-13338
和反	-13339
困扰	-13340
定理	-13341
富汗	-13342
弯曲	-13343
比冲	-13344
泡沫	-13345
短程	-13346
科夫	-13347
载客	-13348
降至	-13349
MIT	-13350
▁决策	-13351
▁故障	-13352
与交流	-13353
人民币	-13354
使中国	-13355
占有率	-13356
变速器	-13357
和场景	-13358
和行动	-13359
孩子们	-13360
或损坏	-13361
战斗中	-13362
探索中	-13363
暗能量	-13364
污染源	-13365
法律的	-13366
涵道比	-13367
的哪些	-13368
的观点	-13369
研发出	-13370
社会和	-13371
系统与	-13372
结构件	-13373
英特尔	-13374
语音转	-13375
辐射对	-13376
阿富汗	-13377
1500	-13378
▁空间站	-13379
中使用的	-13380
也提高了	-13381
以及开发	-13382
其他行星	-13383
制造飞机	-13384
可扩展性	-13385
和研讨会	-13386
工作状态	-13387
我想了解	-13388
是世界上	-13389
智能水平	-13390
根据您的	-13391
特别是对	-13392
科学领域	-13393
紧密结合	-13394
联邦学习	-13395
语义分析	-13396
财产安全	-13397
购物体验	-13398
这一挑战	-13399
这种情况	-13400
▁中国海军	-13401
▁在未来的	-13402
▁数据安全	-13403
人们的出行	-13404
体现了中国	-13405
健康和安全	-13406
区块链技术	-13407
将变得更加	-13408
建立良好的	-13409
有哪些主要	-13410
的速度飞行	-13411
经历了哪些	-13412
预测可能的	-13413
医学与生理学	-13414
发现数据中的	-13415
方面表现出色	-13416
的技术和方法	-13417
训练好的模型	-13418
遵守交通规则	-13419
以下是一些重要的	-13420
人工智能的快速发展	-13421
▁人工智能的历史发展	-13422
提供个性化的投资建议	-13423
▁Intelligence	-13424
BS	-13425
三位	-13426
亚平	-13427
传授	-13428
佩戴	-13429
保有	-13430
击中	-13431
加固	-13432
号在	-13433
命运	-13434
型和	-13435
末端	-13436
混淆	-13437
的大	-13438
翼面	-13439
耦合	-13440
调配	-13441
超大	-13442
重卡	-13443
ann	-13444
ext	-13445
▁欧洲	-13446
不仅能	-13447
不准确	-13448
不超过	-13449
与行业	-13450
产品和	-13451
像人类	-13452
原有的	-13453
友好的	-13454
可追溯	-13455
和项目	-13456
并生成	-13457
开放的	-13458
数量的	-13459
显微镜	-13460
机翼的	-13461
被恶意	-13462
规模的	-13463
马斯克	-13464
也能保持	-13465
促进作用	-13466
合成孔径	-13467
应急管理	-13468
强有力的	-13469
提升自身	-13470
播放音乐	-13471
操作人员	-13472
数学模型	-13473
更广阔的	-13474
核反应堆	-13475
神舟飞船	-13476
科学知识	-13477
科学素养	-13478
航空服务	-13479
造成严重	-13480
量的增加	-13481
不足的问题	-13482
发射过程中	-13483
可能产生的	-13484
可能会因为	-13485
培训和认证	-13486
太空旅行的	-13487
常见的问题	-13488
开发和利用	-13489
提供了有力	-13490
显著增强了	-13491
武装直升机	-13492
法律和法规	-13493
法律和监管	-13494
的环境条件	-13495
研发和使用	-13496
设备的使用	-13497
领域的创新	-13498
在制造过程中	-13499
新技术的应用	-13500
航天员的安全	-13501
这样可以减少	-13502
PyTorch	-13503
产生了显著影响	-13504
使用人工智能时	-13505
电动汽车的普及	-13506
在军事领域的应用	-13507
对人工智能的发展	-13508
数据隐私和安全问题	-13509
73	-13510
96	-13511
一条	-13512
交往	-13513
倾角	-13514
兵力	-13515
变道	-13516
器械	-13517
对方	-13518
往返	-13519
无辜	-13520
法等	-13521
照射	-13522
确立	-13523
简历	-13524
紧迫	-13525
见证	-13526
详尽	-13527
CFD	-13528
▁腾讯	-13529
利益和	-13530
和学生	-13531
和风能	-13532
在航母	-13533
增长率	-13534
天然气	-13535
它使得	-13536
对我们	-13537
并没有	-13538
并能够	-13539
是人类	-13540
热成像	-13541
用户在	-13542
目标时	-13543
等活动	-13544
策略来	-13545
角度看	-13546
soft	-13547
一些问题	-13548
也将推动	-13549
侦察卫星	-13550
共享汽车	-13551
军事技术	-13552
分享一下	-13553
国际市场	-13554
复杂任务	-13555
太空竞赛	-13556
实践操作	-13557
废气排放	-13558
持续关注	-13559
持续监控	-13560
控制算法	-13561
提供有关	-13562
无论是在	-13563
有效应对	-13564
比如通过	-13565
物理现象	-13566
玻璃纤维	-13567
的设计和	-13568
精确度和	-13569
纳米材料	-13570
线性回归	-13571
这些公司	-13572
这些成就	-13573
进行修复	-13574
addle	-13575
▁太空旅游	-13576
产生的影响	-13577
产量和质量	-13578
你可以通过	-13579
在机器学习	-13580
有哪些特点	-13581
沟通和协作	-13582
还可以推动	-13583
数据安全问题	-13584
空气质量监测	-13585
系统可以根据	-13586
紧急情况下的	-13587
产生了哪些影响	-13588
可能出现的故障	-13589
通过教育和培训	-13590
需要大量的资金投入	-13591
机器学习和深度学习技术	-13592
ED	-13593
▁大	-13594
中子	-13595
之旅	-13596
亮点	-13597
可疑	-13598
密钥	-13599
射速	-13600
山脉	-13601
放弃	-13602
放电	-13603
晋升	-13604
板块	-13605
油门	-13606
波长	-13607
祝你	-13608
纳斯	-13609
缩放	-13610
网格	-13611
脆弱	-13612
视镜	-13613
-47	-13614
三步走	-13615
不具备	-13616
也应该	-13617
也能够	-13618
动物的	-13619
化发展	-13620
发生在	-13621
号火箭	-13622
和实施	-13623
在国内	-13624
学生和	-13625
强国的	-13626
独特性	-13627
登陆艇	-13628
的实例	-13629
的指导	-13630
的排放	-13631
等优点	-13632
肌肉和	-13633
詹姆斯	-13634
还具有	-13635
飞行前	-13636
食品的	-13637
1970	-13638
EASA	-13639
mage	-13640
上进行了	-13641
为了减少	-13642
从而引发	-13643
他们还会	-13644
传感器等	-13645
全面提升	-13646
卫星网络	-13647
反作用力	-13648
可以激发	-13649
可以迅速	-13650
合理利用	-13651
同时降低	-13652
学习过程	-13653
实时调整	-13654
尽量避免	-13655
成为现实	-13656
早期阶段	-13657
比如使用	-13658
生命存在	-13659
疾病预测	-13660
的准确率	-13661
科学发现	-13662
航天器与	-13663
艺术风格	-13664
驾驶环境	-13665
驾驶辅助	-13666
高强度的	-13667
▁总体而言	-13668
专业的汽车	-13669
中的作用是	-13670
以及如何在	-13671
发现潜在的	-13672
处理和理解	-13673
它如何帮助	-13674
带来巨大的	-13675
您可以根据	-13676
情报收集和	-13677
提升自己的	-13678
更高的要求	-13679
有哪些挑战	-13680
材料的选择	-13681
游戏设计中	-13682
的成功案例	-13683
空气滤清器	-13684
车辆的行驶	-13685
阿里巴巴的	-13686
需要我们在	-13687
产生重要影响	-13688
在实际操作中	-13689
对于人工智能	-13690
应对气候变化	-13691
无人机的使用	-13692
更复杂的任务	-13693
正在不断发展	-13694
航空交通管制	-13695
传感器和摄像头	-13696
可能的解决方案	-13697
独特的艺术作品	-13698
宇航员在太空中的	-13699
航空航天历史上的	-13700
航空航天科普知识	-13701
机器学习和数据分析	-13702
随着航空航天技术的发展	-13703
MP	-13704
SP	-13705
以期	-13706
优越	-13707
储能	-13708
列出	-13709
取证	-13710
对焦	-13711
布置	-13712
年度	-13713
悬停	-13714
控股	-13715
放宽	-13716
旷视	-13717
木卫	-13718
机务	-13719
沙尘	-13720
疫苗	-13721
英雄	-13722
载具	-13723
退出	-13724
eng	-13725
ith	-13726
▁分析	-13727
▁资源	-13728
共享和	-13729
和污染	-13730
和空客	-13731
并实施	-13732
归一化	-13733
微软的	-13734
态度和	-13735
成立了	-13736
有望在	-13737
材料来	-13738
的评估	-13739
着陆点	-13740
研究了	-13741
科技和	-13742
等工具	-13743
采取的	-13744
防火墙	-13745
高密度	-13746
也成为了	-13747
事故风险	-13748
伦理挑战	-13749
如何防止	-13750
完整性和	-13751
导航服务	-13752
循环经济	-13753
救援人员	-13754
涡轮风扇	-13755
综合应用	-13756
网络结构	-13757
进行比较	-13758
进行精确	-13759
隐身设计	-13760
顺利完成	-13761
卫星互联网	-13762
发动机故障	-13763
在语音识别	-13764
复杂的算法	-13765
实战化训练	-13766
战场环境中	-13767
技术进步和	-13768
控制系统等	-13769
改进飞机的	-13770
更加安全和	-13771
最重要的是	-13772
标志着我国	-13773
特别是针对	-13774
玩家的游戏	-13775
研发和创新	-13776
舱外航天服	-13777
这将帮助您	-13778
具有挑战性的	-13779
条件下的性能	-13780
航空公司应该	-13781
通过国际合作	-13782
▁人工智能是否	-13783
关于人工智能的	-13784
具体的应用场景	-13785
大量的个人数据	-13786
材料和结构设计	-13787
设备的正常运行	-13788
无人驾驶飞行器的	-13789
可以减轻飞机的重量	-13790
人工智能技术的发展和应用	-13791
%:	-13792
oc	-13793
中文	-13794
仅需	-13795
变异	-13796
增添	-13797
工信	-13798
时会	-13799
横向	-13800
率先	-13801
电器	-13802
种群	-13803
船只	-13804
误诊	-13805
轮廓	-13806
迈进	-13807
造船	-13808
马力	-13809
195	-13810
end	-13811
rom	-13812
五代机	-13813
仍存在	-13814
和互动	-13815
和培养	-13816
和恢复	-13817
如雷达	-13818
将使得	-13819
建立起	-13820
建造的	-13821
微小的	-13822
快速和	-13823
整流罩	-13824
的一次	-13825
的状态	-13826
的监测	-13827
等企业	-13828
行业内	-13829
趣味性	-13830
身体的	-13831
频繁的	-13832
2035	-13833
WiFi	-13834
▁美国的	-13835
不同之处	-13836
也可能会	-13837
其中一个	-13838
创新性的	-13839
前沿技术	-13840
包括哪些	-13841
员工培训	-13842
土地利用	-13843
外形设计	-13844
多种因素	-13845
大气成分	-13846
如何看待	-13847
应用中的	-13848
或者通过	-13849
政府机构	-13850
更高要求	-13851
有何提升	-13852
来提高其	-13853
歧视问题	-13854
气候研究	-13855
涉及到了	-13856
现实生活	-13857
电视节目	-13858
疲劳性能	-13859
神舟五号	-13860
私人企业	-13861
管理能力	-13862
航天工业	-13863
超越人类	-13864
运行成本	-13865
这些测试	-13866
非常适合	-13867
▁2022	-13868
传感器融合	-13869
分析用户的	-13870
周围环境的	-13871
太空飞行器	-13872
效率和效果	-13873
时间和资源	-13874
有效提升了	-13875
有用的特征	-13876
科技实力和	-13877
而机器学习	-13878
自动驾驶等	-13879
航空模型的	-13880
隐身性能和	-13881
人工智能需要	-13882
无人机的飞行	-13883
未来航空航天	-13884
设计和制造中	-13885
▁中国空间站的	-13886
▁无人驾驶技术	-13887
数据科学的交叉	-13888
潜在的安全风险	-13889
自我学习和改进	-13890
使用人工智能算法	-13891
自动化和智能化的	-13892
的影响主要表现在以下几个方面	-13893
一份	-13894
俄制	-13895
信誉	-13896
出售	-13897
四川	-13898
地平	-13899
并购	-13900
广角	-13901
必需	-13902
推行	-13903
施加	-13904
每秒	-13905
滚动	-13906
理赔	-13907
素材	-13908
红色	-13909
船员	-13910
警戒	-13911
重比	-13912
▁成本	-13913
▁电动	-13914
与分析	-13915
从而对	-13916
创新与	-13917
加速器	-13918
十一号	-13919
和生物	-13920
在项目	-13921
对不同	-13922
将进行	-13923
巡洋舰	-13924
延长其	-13925
快速地	-13926
拓宽了	-13927
指挥和	-13928
有潜力	-13929
的工具	-13930
的方向	-13931
的自然	-13932
的讨论	-13933
相关性	-13934
福建舰	-13935
追踪和	-13936
防御和	-13937
列举一些	-13938
型护卫舰	-13939
如何优化	-13940
如何考虑	-13941
如制造业	-13942
学习新的	-13943
实现精准	-13944
寻找新的	-13945
您可以在	-13946
提供动力	-13947
提高员工	-13948
数字经济	-13949
无线电波	-13950
智能音箱	-13951
液氧甲烷	-13952
火箭推进	-13953
空间中的	-13954
质量标准	-13955
这一设计	-13956
通过集成	-13957
遥感监测	-13958
▁这些案例	-13959
不仅改变了	-13960
为客户提供	-13961
为每个学生	-13962
之间的合作	-13963
保持竞争力	-13964
反应速度和	-13965
可能会侵犯	-13966
在月球背面	-13967
它可以提高	-13968
尊重和保护	-13969
建立相应的	-13970
强化学习等	-13971
提高系统的	-13972
数据中学习	-13973
是一个持续	-13974
的合作关系	-13975
相关的安全	-13976
紧急情况的	-13977
经济增长点	-13978
结构和功能	-13979
计算机模拟	-13980
这些技术在	-13981
进行定期的	-13982
预测和模拟	-13983
性能和准确性	-13984
来预测未来的	-13985
中国航天事业的	-13986
人工智能的算法	-13987
更好地理解和处理	-13988
起到了重要的作用	-13989
ov	-13990
”?	-13991
▁可	-13992
低频	-13993
公式	-13994
匕首	-13995
合约	-13996
听力	-13997
商汤	-13998
圆满	-13999
孵化	-14000
搬运	-14001
收割	-14002
暴风	-14003
线下	-14004
绿灯	-14005
舱的	-14006
调控	-14007
▁激光	-14008
与法规	-14009
产品线	-14010
仍然是	-14011
关键点	-14012
司令部	-14013
和用户	-14014
地区和	-14015
培养出	-14016
对理解	-14017
嵌入式	-14018
并成功	-14019
应具备	-14020
影响着	-14021
探险家	-14022
由美国	-14023
的联系	-14024
碳中和	-14025
科技与	-14026
背面的	-14027
oder	-14028
▁1.《	-14029
▁Lab	-14030
▁在教育	-14031
一氧化碳	-14032
专利申请	-14033
乘客体验	-14034
以及通过	-14035
伦理审查	-14036
值得我们	-14037
其强大的	-14038
北斗导航	-14039
反应时间	-14040
合理规划	-14041
和可靠性	-14042
固体燃料	-14043
大大减少	-14044
嫦娥一号	-14045
实战能力	-14046
对于一些	-14047
控制成本	-14048
提供更为	-14049
提高物流	-14050
更全面地	-14051
材料性能	-14052
相关技术	-14053
能否详细	-14054
芯片短缺	-14055
语音命令	-14056
预测需求	-14057
驾驶员和	-14058
驾驶数据	-14059
出现问题时	-14060
在航天领域	-14061
常见的挑战	-14062
无人驾驶的	-14063
有限公司在	-14064
理解和掌握	-14065
理解和解析	-14066
的一个重要	-14067
的快速发展	-14068
被用于制造	-14069
隐私权问题	-14070
Apollo	-14071
中的一个重要	-14072
提高学习效率	-14073
私人航天公司	-14074
紧急情况处理	-14075
主要有以下几种	-14076
以确保飞行安全	-14077
商业领域的应用	-14078
在航空航天系统	-14079
提高学生的学习	-14080
▁航空航天工程师	-14081
可以提高飞行器的	-14082
深度学习可以用于	-14083
需要多方面的努力	-14084
飞行的安全性和效率	-14085
人工智能在医疗领域的	-14086
人工智能的开发和使用	-14087
CH	-14088
CV	-14089
SR	-14090
ug	-14091
上面	-14092
削减	-14093
可在	-14094
商家	-14095
尿病	-14096
平安	-14097
摄氏	-14098
支柱	-14099
朋友	-14100
民生	-14101
湖南	-14102
硕士	-14103
细化	-14104
罗夫	-14105
脱离	-14106
自研	-14107
行程	-14108
语速	-14109
2.0	-14110
320	-14111
edX	-14112
个人或	-14113
公司或	-14114
如飞机	-14115
广泛而	-14116
成员国	-14117
承担了	-14118
控制在	-14119
故障等	-14120
歧视性	-14121
等特点	-14122
糖尿病	-14123
航空法	-14124
高温和	-14125
atch	-14126
以下方法	-14127
以便进行	-14128
以及推动	-14129
发射能力	-14130
可能包含	-14131
号探测器	-14132
在国际上	-14133
地方政府	-14134
大模型的	-14135
实践机会	-14136
对飞行员	-14137
小行星的	-14138
找到一个	-14139
提高飞机	-14140
新闻报道	-14141
更加逼真	-14142
汽车内饰	-14143
法律挑战	-14144
电磁干扰	-14145
经济结构	-14146
维修成本	-14147
综合作战	-14148
能够支持	-14149
范围内的	-14150
设计团队	-14151
轰炸机在	-14152
载重能力	-14153
这些特性	-14154
选择具有	-14155
通用机场	-14156
▁如何理解	-14157
▁持续改进	-14158
▁波音公司	-14159
使用适当的	-14160
分布式计算	-14161
措施来应对	-14162
更重要的是	-14163
未来几年内	-14164
条件下都能	-14165
的安全管理	-14166
自动识别和	-14167
识别和评估	-14168
这可能需要	-14169
世界上第一架	-14170
决策过程中的	-14171
利用大数据和	-14172
在线学习平台	-14173
地理信息系统	-14174
相比有何优势	-14175
这可能会影响	-14176
飞机在空中的	-14177
▁System	-14178
苏联宇航员尤里	-14179
▁人工智能在环保	-14180
人工智能可以作为	-14181
在航空航天行业中	-14182
生成新的艺术作品	-14183
人工智能在决策制定	-14184
随着科技的不断发展	-14185
主要集中在以下几个方面	-14186
42	-14187
:3	-14188
▁阿	-14189
仿制	-14190
侧向	-14191
北汽	-14192
受伤	-14193
回复	-14194
在多	-14195
搭配	-14196
正义	-14197
海面	-14198
焦距	-14199
着舰	-14200
站的	-14201
装饰	-14202
襟翼	-14203
询问	-14204
轴承	-14205
AIP	-14206
ile	-14207
▁例如	-14208
与真实	-14209
冷却液	-14210
受益于	-14211
号飞船	-14212
大会上	-14213
学校和	-14214
并增加	-14215
更清洁	-14216
每一次	-14217
特点是	-14218
的故事	-14219
看起来	-14220
着陆和	-14221
等场景	-14222
运营的	-14223
通用的	-14224
都是在	-14225
▁比亚迪	-14226
不断涌现	-14227
与中国的	-14228
为了保证	-14229
为了满足	-14230
全球组网	-14231
具体影响	-14232
减少污染	-14233
减少飞机	-14234
包括飞行	-14235
发出警告	-14236
如何保障	-14237
安全方面	-14238
提供依据	-14239
收集关于	-14240
教学方案	-14241
时间序列	-14242
更多领域	-14243
气候数据	-14244
熟练掌握	-14245
特定需求	-14246
确保项目	-14247
运输成本	-14248
这些要求	-14249
进行定期	-14250
金融风险	-14251
长远发展	-14252
需要高度	-14253
飞控系统	-14254
高效运行	-14255
Alpha	-14256
▁嫦娥五号	-14257
▁航天科学	-14258
事故的原因	-14259
其中的一些	-14260
具体体现在	-14261
制定有效的	-14262
国防和军事	-14263
如气候变化	-14264
对飞行器的	-14265
建设和运营	-14266
政策支持和	-14267
更加智能和	-14268
极端的温度	-14269
模式识别和	-14270
法律和道德	-14271
的数据处理	-14272
自己的学习	-14273
设立专门的	-14274
设计和生产	-14275
进一步降低	-14276
选择最适合	-14277
北斗导航系统	-14278
对人体的影响	-14279
稳定性和控制	-14280
▁Assist	-14281
金融产品和服务	-14282
▁以上只是一部分	-14283
▁人工智能的发展对	-14284
▁空中交通管理系统	-14285
人工智能和数据科学	-14286
人工智能在游戏设计	-14287
二氧化碳和其他温室气体	-14288
人工智能系统需要大量的	-14289
电动汽车和混合动力汽车	-14290
航空航天活动对环境的影响	-14291
▁人工智能在教育领域的应用	-14292
Ex	-14293
fe	-14294
ry	-14295
▁Q	-14296
不均	-14297
两大	-14298
保税	-14299
少量	-14300
尖端	-14301
局面	-14302
强制	-14303
慧眼	-14304
所谓	-14305
新鲜	-14306
核能	-14307
泵组	-14308
海岸	-14309
滞后	-14310
看来	-14311
经费	-14312
花费	-14313
让我	-14314
跟随	-14315
鉴定	-14316
铺平	-14317
除此	-14318
魅力	-14319
ars	-14320
▁企业	-14321
▁关注	-14322
▁韩国	-14323
从业者	-14324
保持其	-14325
和医疗	-14326
和实验	-14327
和技能	-14328
和推动	-14329
和改善	-14330
在城市	-14331
在数据	-14332
在驾驶	-14333
实用的	-14334
工程中	-14335
摄像机	-14336
更少的	-14337
演习中	-14338
的步骤	-14339
的考虑	-14340
确定了	-14341
等其他	-14342
▁2.《	-14343
▁请简述	-14344
之间存在	-14345
因为这些	-14346
它们各自	-14347
尝试使用	-14348
广告投放	-14349
应用方面	-14350
开发出了	-14351
恐怖袭击	-14352
情感状态	-14353
明确同意	-14354
是巨大的	-14355
有何帮助	-14356
有望成为	-14357
未经授权	-14358
模型预测	-14359
相关课程	-14360
空中打击	-14361
能够确保	-14362
进行规范	-14363
防止数据	-14364
除此之外	-14365
高温材料	-14366
鼓励员工	-14367
▁作为一个	-14368
▁提高效率	-14369
▁智能辅导	-14370
产品竞争力	-14371
保护我们的	-14372
具有优异的	-14373
具有极高的	-14374
军事装备的	-14375
卫星通信和	-14376
如图像识别	-14377
时代的开始	-14378
有限公司的	-14379
测试和评估	-14380
温度和压力	-14381
环境问题的	-14382
现代战争中	-14383
能够在复杂	-14384
训练过程中	-14385
超级计算机	-14386
从大量数据中	-14387
以提供更好的	-14388
保护数据隐私	-14389
在设计和开发	-14390
环境可持续性	-14391
远程精确打击	-14392
人们的生活方式	-14393
军事领域的应用	-14394
可以分析大量的	-14395
可靠性和稳定性	-14396
对环境产生影响	-14397
提高燃油效率和	-14398
智能化和自动化	-14399
自动驾驶汽车中	-14400
长途飞行的时间	-14401
利用人工智能算法	-14402
通过自然语言处理	-14403
新一代人工智能发展	-14404
电动汽车的续航里程	-14405
航空航天技术在环保	-14406
减少对化石燃料的依赖	-14407
▁人工智能如何帮助我们	-14408
通过深度学习和机器学习	-14409
随着人工智能技术的不断发展	-14410
一层	-14411
一环	-14412
不高	-14413
主机	-14414
伯克	-14415
保时	-14416
做到	-14417
全息	-14418
北美	-14419
发音	-14420
地勤	-14421
寒冷	-14422
寒武	-14423
息地	-14424
我还	-14425
或是	-14426
斯帕	-14427
方差	-14428
时尚	-14429
月宫	-14430
校园	-14431
油量	-14432
混乱	-14433
滤镜	-14434
脚架	-14435
航时	-14436
药品	-14437
蜂窝	-14438
衍生	-14439
近海	-14440
通风	-14441
面罩	-14442
高通	-14443
▁政府	-14444
也日益	-14445
全流程	-14446
全面地	-14447
分之一	-14448
坦克的	-14449
子领域	-14450
寒武纪	-14451
对推动	-14452
对月球	-14453
局限于	-14454
或需要	-14455
截面积	-14456
打下了	-14457
更精确	-14458
核聚变	-14459
演化的	-14460
的法规	-14461
的降低	-14462
锂离子	-14463
陆战队	-14464
雷达等	-14465
项目或	-14466
高功率	-14467
rain	-14468
亚太地区	-14469
从而改善	-14470
他们应该	-14471
任何一个	-14472
优惠政策	-14473
伽马射线	-14474
创新精神	-14475
医学图像	-14476
合理分配	-14477
宇宙起源	-14478
对汽车的	-14479
导航信息	-14480
希望这些	-14481
带来许多	-14482
理解程度	-14483
的设计中	-14484
研制团队	-14485
突发状况	-14486
等多方面	-14487
载人飞行	-14488
这些合作	-14489
这些气体	-14490
进行研究	-14491
▁当涉及到	-14492
▁环境保护	-14493
人工智能是	-14494
关键技术和	-14495
其他国家的	-14496
具备强大的	-14497
创新和应用	-14498
可能会加剧	-14499
并不意味着	-14500
打印技术在	-14501
探索和利用	-14502
智能化转型	-14503
未来的汽车	-14504
的安全挑战	-14505
监测和预警	-14506
神经网络和	-14507
航空安全和	-14508
计算机系统	-14509
适应不同的	-14510
公司正在开发	-14511
加大研发投入	-14512
执行各种任务	-14513
的发展历程中	-14514
解决这个问题	-14515
奠定了坚实基础	-14516
帮助我们更好地	-14517
无人机可以用于	-14518
遇到了哪些挑战	-14519
通用数据保护条例	-14520
人工智能的健康发展	-14521
预测疾病的发展趋势	-14522
人工智能在金融行业的	-14523
在使用人工智能技术时	-14524
FC	-14525
NO	-14526
ww	-14527
不在	-14528
严峻	-14529
位素	-14530
作家	-14531
侵蚀	-14532
关税	-14533
初级	-14534
助教	-14535
如歼	-14536
富有	-14537
对空	-14538
山区	-14539
广大	-14540
废旧	-14541
弥斯	-14542
弹簧	-14543
描绘	-14544
摄入	-14545
星体	-14546
树脂	-14547
步兵	-14548
水体	-14549
演讲	-14550
特技	-14551
班组	-14552
破冰	-14553
破裂	-14554
神秘	-14555
稀有	-14556
穿甲	-14557
警觉	-14558
证券	-14559
首款	-14560
est	-14561
ust	-14562
▁在我	-14563
▁强调	-14564
▁构建	-14565
▁自主	-14566
不透明	-14567
与全球	-14568
保时捷	-14569
划分为	-14570
则是指	-14571
办公室	-14572
动作和	-14573
即时的	-14574
同位素	-14575
启发式	-14576
和推广	-14577
和推理	-14578
如果不	-14579
宇航服	-14580
对企业	-14581
最好的	-14582
检测等	-14583
液态水	-14584
的团队	-14585
的干扰	-14586
的车型	-14587
的输出	-14588
脉冲星	-14589
航线的	-14590
计划将	-14591
陨石坑	-14592
vers	-14593
▁乌克兰	-14594
不同国家	-14595
专门针对	-14596
可以保护	-14597
对于中国	-14598
对于人类	-14599
废物管理	-14600
建立一套	-14601
必须确保	-14602
情感表达	-14603
技术优势	-14604
新的材料	-14605
有何作用	-14606
汽车公司	-14607
的发展对	-14608
这一变化	-14609
进行安全	-14610
选择最佳	-14611
隐形战机	-14612
飞行甲板	-14613
个性化医疗	-14614
习惯和偏好	-14615
以及它如何	-14616
使得计算机	-14617
做出决策的	-14618
军事领域的	-14619
性能和功能	-14620
提高公众对	-14621
数据的收集	-14622
更远的距离	-14623
相关产业的	-14624
等环境问题	-14625
系统的运行	-14626
经验和技术	-14627
航天科技的	-14628
设备的运行	-14629
身体和心理	-14630
载人航天器	-14631
▁请详细解释	-14632
地球同步轨道	-14633
按照以下步骤	-14634
提供更精确的	-14635
日常生活中的	-14636
起着关键作用	-14637
进行实时监控	-14638
通过训练模型	-14639
野生动物保护	-14640
决策支持系统中	-14641
加剧社会不平等	-14642
人工智能解决方案	-14643
其他车辆和行人的	-14644
航空航天领域的应用	-14645
▁无	-14646
代数	-14647
单机	-14648
型的	-14649
巴西	-14650
总统	-14651
恐惧	-14652
战区	-14653
所学	-14654
月份	-14655
电传	-14656
立场	-14657
级和	-14658
耐力	-14659
薄弱	-14660
轮毂	-14661
运力	-14662
风景	-14663
80%	-14664
▁De	-14665
▁高级	-14666
为环保	-14667
为研究	-14668
受限于	-14669
向公众	-14670
和更换	-14671
如温度	-14672
就业和	-14673
建模和	-14674
引擎和	-14675
条件的	-14676
用户和	-14677
的实验	-14678
的看法	-14679
空对空	-14680
网络战	-14681
获取的	-14682
赢得了	-14683
还存在	-14684
ADAS	-14685
▁大数据	-14686
不会侵犯	-14687
业务模式	-14688
公共卫生	-14689
军事训练	-14690
太阳辐射	-14691
太阳风暴	-14692
实践活动	-14693
快门优先	-14694
或者其他	-14695
换电模式	-14696
无人潜航	-14697
智能推荐	-14698
智能行为	-14699
更耐用的	-14700
自我修复	-14701
要求极高	-14702
调查人员	-14703
避免使用	-14704
非常关键	-14705
▁天气预报	-14706
▁美国空军	-14707
互联网服务	-14708
出现错误或	-14709
大大增强了	-14710
大规模生产	-14711
战争的形态	-14712
故障诊断和	-14713
显著的提升	-14714
更加高效的	-14715
更高级别的	-14716
污染物排放	-14717
的决策支持	-14718
空对空导弹	-14719
结构设计和	-14720
自适应巡航	-14721
航空安全局	-14722
设计与优化	-14723
这些传感器	-14724
ention	-14725
人工智能医生	-14726
从而帮助企业	-14727
指挥控制系统	-14728
牛顿第三定律	-14729
的研究和开发	-14730
航空航天产品	-14731
航空航天市场	-14732
可能会取代一些	-14733
系统的决策过程	-14734
航空航天行业在	-14735
设计和制造技术	-14736
安全性和隐私问题	-14737
展示了人工智能在	-14738
的准确性和可靠性	-14739
最新的航空航天技术	-14740
确保人工智能系统的	-14741
莱特兄弟成功进行了	-14742
▁全球航空航天产业的	-14743
以确保人工智能的发展	-14744
DF	-14745
GR	-14746
不便	-14747
主张	-14748
体检	-14749
前向	-14750
剧本	-14751
加力	-14752
原有	-14753
壮大	-14754
多边	-14755
德尔	-14756
悬架	-14757
扳手	-14758
持有	-14759
明白	-14760
星舰	-14761
王星	-14762
移民	-14763
管路	-14764
细微	-14765
翻转	-14766
英尺	-14767
蚂蚁	-14768
西北	-14769
评审	-14770
财富	-14771
载体	-14772
迫切	-14773
间隙	-14774
飓风	-14775
黄蜂	-14776
▁参加	-14777
▁市场	-14778
▁电磁	-14779
▁遵循	-14780
中国还	-14781
伦理与	-14782
创作者	-14783
创意和	-14784
十三五	-14785
应根据	-14786
成熟的	-14787
敏感性	-14788
是多元	-14789
深刻地	-14790
深度和	-14791
灵敏度	-14792
的伦理	-14793
的转化	-14794
竞赛中	-14795
航天法	-14796
航母在	-14797
该计划	-14798
volu	-14799
为您解答	-14800
也被称为	-14801
交通数据	-14802
人员安全	-14803
人才队伍	-14804
以及提供	-14805
例如自动	-14806
具有哪些	-14807
准确识别	-14808
可能会有	-14809
同时减少	-14810
多个角度	-14811
多层次的	-14812
旅游业的	-14813
更全面的	-14814
航天强国	-14815
阐述一下	-14816
项目计划	-14817
之间的平衡	-14818
也可能影响	-14819
和安全问题	-14820
和模式识别	-14821
在月球表面	-14822
太空探险家	-14823
接受严格的	-14824
极端条件下	-14825
水资源管理	-14826
疾病的早期	-14827
语音识别等	-14828
运载火箭在	-14829
进行复杂的	-14830
上有哪些特点	-14831
农业生产效率	-14832
和可持续发展	-14833
强度和耐久性	-14834
技术可以用于	-14835
提高运营效率	-14836
地球的气候变化	-14837
进行个性化教学	-14838
银行和金融机构	-14839
非常重要的角色	-14840
飞行器的安全性	-14841
人工智能可以模拟	-14842
得到了广泛的应用	-14843
更好地理解和预测	-14844
▁人工智能如何提高	-14845
提高生产效率和质量	-14846
▁Assistant	-14847
62	-14848
;(	-14849
Le	-14850
与歼	-14851
二级	-14852
党建	-14853
呼吁	-14854
干净	-14855
支出	-14856
未被	-14857
港口	-14858
脑机	-14859
衔接	-14860
越大	-14861
较慢	-14862
隔音	-14863
-23	-14864
-39	-14865
ong	-14866
▁专业	-14867
▁英国	-14868
上实现	-14869
也存在	-14870
光谱仪	-14871
其行为	-14872
准备好	-14873
和作战	-14874
在一个	-14875
在遇到	-14876
多普勒	-14877
如果有	-14878
学生对	-14879
对周边	-14880
工作时	-14881
氢能源	-14882
的担忧	-14883
的真实	-14884
解释和	-14885
连续性	-14886
长寿命	-14887
零售商	-14888
ator	-14889
中段反导	-14890
人道主义	-14891
任务期间	-14892
共同制定	-14893
创新发展	-14894
创新设计	-14895
制造企业	-14896
发展阶段	-14897
同时也要	-14898
学习到的	-14899
对俄罗斯	-14900
应急计划	-14901
投资顾问	-14902
政府可以	-14903
整体重量	-14904
文本分析	-14905
显著改进	-14906
更真实的	-14907
检测技术	-14908
清华大学	-14909
网络连接	-14910
进行深度	-14911
通过计算	-14912
造成污染	-14913
重复性的	-14914
飞行员会	-14915
▁另一方面	-14916
▁机器翻译	-14917
▁通过上述	-14918
便利和创新	-14919
回应用户的	-14920
国防和安全	-14921
市场数据和	-14922
性能的提升	-14923
患者的病情	-14924
拥有强大的	-14925
方面的优势	-14926
是一个重要	-14927
智能化程度	-14928
最新的安全	-14929
有助于推动	-14930
机会和挑战	-14931
机器人能够	-14932
理解和分析	-14933
的主要科学	-14934
的稳定性和	-14935
的顺利进行	-14936
科学和技术	-14937
美国宇航局	-14938
自动化程度	-14939
艺术和文化	-14940
还需要解决	-14941
这可以提高	-14942
非常感兴趣	-14943
▁支持向量机	-14944
▁请介绍一些	-14945
一些负面影响	-14946
中的应用案例	-14947
在极端环境下	-14948
灵活性和效率	-14949
等领域取得了	-14950
自动化生产线	-14951
▁另一个挑战是	-14952
了解人工智能的	-14953
减轻飞机的重量	-14954
航天事业的发展	-14955
以下是其中的一些	-14956
航空航天科学中的	-14957
也是一个重要的伦理问题	-14958
航空航天技术在环境保护	-14959
▁人工智能在医疗领域的应用	-14960
万人	-14961
去年	-14962
吨的	-14963
吨级	-14964
喷涂	-14965
图表	-14966
审美	-14967
废水	-14968
机关	-14969
格洛	-14970
炮塔	-14971
要点	-14972
贫富	-14973
防卫	-14974
飞天	-14975
飞速	-14976
▁推广	-14977
下一步	-14978
两国在	-14979
参数和	-14980
可见光	-14981
和修复	-14982
和回收	-14983
如航空	-14984
宽敞的	-14985
对特定	-14986
工信部	-14987
忒弥斯	-14988
性和可	-14989
意义的	-14990
或错误	-14991
推重比	-14992
攻克了	-14993
是关于	-14994
的动态	-14995
的测试	-14996
的物理	-14997
的自动	-14998
示范区	-14999
轨道和	-15000
道德或	-15001
那么它	-15002
非常快	-15003
领域有	-15004
验证集	-15005
icro	-15006
uper	-15007
▁055	-15008
▁在航空	-15009
上的优势	-15010
作战体系	-15011
使飞行器	-15012
具体问题	-15013
出行服务	-15014
创新中心	-15015
危险情况	-15016
可以参考	-15017
同时通过	-15018
安全技术	-15019
安全着陆	-15020
实战经验	-15021
思维方式	-15022
您可能会	-15023
持续优化	-15024
政策导向	-15025
正在逐渐	-15026
生态保护	-15027
确保每个	-15028
科工集团	-15029
系统相比	-15030
节省教师	-15031
这个项目	-15032
需要满足	-15033
▁2021	-15034
▁俄罗斯的	-15035
不同国家的	-15036
具有一定的	-15037
和数据分析	-15038
在军事防御	-15039
如何应用于	-15040
如材料科学	-15041
方面的发展	-15042
方面的贡献	-15043
来训练模型	-15044
现代化进程	-15045
理论与实践	-15046
用户满意度	-15047
的决策制定	-15048
的安全事故	-15049
解释和理解	-15050
计算资源和	-15051
载人飞船的	-15052
这些飞行器	-15053
进行了优化	-15054
进行适当的	-15055
通过持续的	-15056
野生动物的	-15057
隐形战斗机	-15058
▁培训和教育	-15059
全球气候变暖	-15060
可以帮助教师	-15061
在很大程度上	-15062
快速交会对接	-15063
战略轰炸机的	-15064
等领域的发展	-15065
系统的可靠性	-15066
通过智能化的	-15067
长时间的太空	-15068
非结构化数据	-15069
▁以上这些都是	-15070
▁在人工智能中	-15071
公平性和透明度	-15072
及时发现和解决	-15073
我们可以更好地	-15074
最新的研究成果	-15075
深度学习模型的	-15076
采取了多项措施	-15077
面临的主要挑战	-15078
乘客和机组人员的	-15079
我们对宇宙的理解	-15080
▁作为一位航空摄影师	-15081
在航空航天领域的应用	-15082
航空航天技术也可以用于	-15083
CM	-15084
En	-15085
LR	-15086
业等	-15087
中期	-15088
五院	-15089
协商	-15090
单次	-15091
土卫	-15092
基层	-15093
字符	-15094
完好	-15095
层级	-15096
忽略	-15097
新冠	-15098
新星	-15099
沿着	-15100
电解	-15101
目视	-15102
着手	-15103
类脑	-15104
词语	-15105
误用	-15106
货车	-15107
近距	-15108
远远	-15109
迫降	-15110
逆向	-15111
避让	-15112
量身	-15113
雕塑	-15114
音爆	-15115
▁专家	-15116
▁农业	-15117
▁华为	-15118
▁长期	-15119
中国将	-15120
全过程	-15121
和共享	-15122
和生产	-15123
和稳定	-15124
和自动	-15125
喜好和	-15126
年左右	-15127
月球上	-15128
登月舱	-15129
的中国	-15130
的培训	-15131
的大小	-15132
的教学	-15133
的新型	-15134
的经验	-15135
空对地	-15136
老年人	-15137
角速度	-15138
NASS	-15139
▁制造业	-15140
不断完善	-15141
中的各种	-15142
中的潜力	-15143
从而做出	-15144
以及他们	-15145
决策效率	-15146
准确性的	-15147
及其团队	-15148
多个目标	-15149
娱乐系统	-15150
学生学习	-15151
定期评估	-15152
实际需求	-15153
尤其是对	-15154
引擎技术	-15155
战略目标	-15156
投送能力	-15157
时间同步	-15158
机器取代	-15159
相关数据	-15160
研发能力	-15161
确保车辆	-15162
科学仪器	-15163
维护人员	-15164
虚拟世界	-15165
解决能力	-15166
通过制定	-15167
需要哪些	-15168
领域取得	-15169
飞机模型	-15170
驾驶安全	-15171
▁医疗保健	-15172
▁我想了解	-15173
▁自动化和	-15174
不仅展示了	-15175
中国在全球	-15176
他们还需要	-15177
企业的合作	-15178
具体有哪些	-15179
商业化应用	-15180
如人工智能	-15181
如何推动了	-15182
导航和通信	-15183
工程和数学	-15184
无线电通信	-15185
更好地满足	-15186
有多种方法	-15187
极大提升了	-15188
用户数据的	-15189
由人工智能	-15190
的技术发展	-15191
知识和技术	-15192
航天飞机在	-15193
航电系统和	-15194
资源的浪费	-15195
通过精确的	-15196
LONASS	-15197
▁请讲述一下	-15198
▁请问有哪些	-15199
与天和核心舱	-15200
及时采取措施	-15201
在这种情况下	-15202
带来了更多的	-15203
等方面的要求	-15204
通过模拟人脑	-15205
随着航空交通	-15206
▁人工智能对于	-15207
人工智能的主要	-15208
如全球定位系统	-15209
数据处理和分析	-15210
采取相应的措施	-15211
需要考虑的问题	-15212
▁人工智能对社会	-15213
人工智能伦理学家	-15214
在航空航天系统的	-15215
可以利用人工智能技术	-15216
可以通过以下几个步骤	-15217
人工智能可以根据学生的学习	-15218
FM	-15219
ft	-15220
sk	-15221
▁0	-15222
临空	-15223
墨子	-15224
异构	-15225
投身	-15226
拓扑	-15227
据此	-15228
散射	-15229
月船	-15230
民机	-15231
气温	-15232
河南	-15233
海峡	-15234
瑞典	-15235
的可	-15236
立方	-15237
良性	-15238
诚实	-15239
过大	-15240
还原	-15241
附件	-15242
高层	-15243
III	-15244
ual	-15245
三脚架	-15246
与优化	-15247
为代表	-15248
以预测	-15249
使军队	-15250
则负责	-15251
初始化	-15252
在安全	-15253
在研究	-15254
学研究	-15255
审计和	-15256
心脏病	-15257
感知到	-15258
收集的	-15259
有限元	-15260
来捕捉	-15261
理论和	-15262
电池和	-15263
的引入	-15264
记录了	-15265
音乐家	-15266
风速和	-15267
首先要	-15268
GNSS	-15269
Uber	-15270
tive	-15271
▁在全球	-15272
业务需求	-15273
中国政府	-15274
中的挑战	-15275
从而产生	-15276
代表性的	-15277
侦察能力	-15278
健康风险	-15279
其在全球	-15280
具有轻质	-15281
大气层内	-15282
常规动力	-15283
感知环境	-15284
效率提升	-15285
教育方式	-15286
旨在提高	-15287
有一定的	-15288
生产线上	-15289
用户可以	-15290
研究进展	-15291
空气中的	-15292
等方面都	-15293
精准打击	-15294
访问权限	-15295
这些国家	-15296
领域应用	-15297
主要是由于	-15298
以满足不同	-15299
以确保它们	-15300
以确保所有	-15301
分析和学习	-15302
原理是什么	-15303
发动机效率	-15304
发生事故时	-15305
帮助驾驶员	-15306
技术的普及	-15307
推进技术的	-15308
材料和工艺	-15309
环境和任务	-15310
的一些主要	-15311
相关的问题	-15312
设计和应用	-15313
驾驶安全性	-15314
▁请分析一下	-15315
可以实时监控	-15316
我们可以采取	-15317
新一代飞机的	-15318
智能交通系统	-15319
等方面的应用	-15320
航空交通管理	-15321
这大大提高了	-15322
▁国际航空航天	-15323
▁希望这些信息	-15324
人工智能艺术家	-15325
广阔的应用前景	-15326
航天技术的进步	-15327
航空航天产业是	-15328
▁人工智能在未来	-15329
在医疗领域的应用	-15330
▁中国载人航天工程	-15331
未来可能会有更多的	-15332
未来航空航天技术的	-15333
Artificial	-15334
▁人工智能技术可以在	-15335
▁这些只是人工智能在	-15336
更好地理解和掌握知识	-15337
语音识别和自然语言处理技术	-15338
DC	-15339
Sc	-15340
▁<	-15341
▁图	-15342
不公	-15343
主任	-15344
五年	-15345
光的	-15346
判决	-15347
剧烈	-15348
动向	-15349
因果	-15350
学金	-15351
实行	-15352
家长	-15353
容错	-15354
得多	-15355
快充	-15356
愉快	-15357
正向	-15358
立项	-15359
等地	-15360
纵深	-15361
装有	-15362
飞往	-15363
龙头	-15364
Gra	-15365
max	-15366
▁人机	-15367
▁项目	-15368
上半年	-15369
上安装	-15370
公平的	-15371
关注点	-15372
原理和	-15373
和他的	-15374
和科研	-15375
和竞争	-15376
在实现	-15377
地平线	-15378
对行业	-15379
居民和	-15380
市场化	-15381
并提升	-15382
放射性	-15383
新兴的	-15384
的双重	-15385
的现象	-15386
的瞬间	-15387
的课程	-15388
的长期	-15389
经典的	-15390
轨道的	-15391
近防炮	-15392
遥远的	-15393
预测等	-15394
高效能	-15395
▁3.《	-15396
▁Air	-15397
专业培训	-15398
也在推动	-15399
前所未有	-15400
和俄罗斯	-15401
国际机场	-15402
安全驾驶	-15403
并且能够	-15404
得到充分	-15405
才能访问	-15406
技术实现	-15407
探测器和	-15408
操作错误	-15409
灾害监测	-15410
用于训练	-15411
目标是在	-15412
节约能源	-15413
节能技术	-15414
表面处理	-15415
财政补贴	-15416
这将推动	-15417
这种策略	-15418
通信方式	-15419
重力环境	-15420
面临挑战	-15421
首飞成功	-15422
▁情感分析	-15423
▁通过这些	-15424
之间的距离	-15425
具有出色的	-15426
和心理健康	-15427
国家的军事	-15428
战略核潜艇	-15429
拍摄角度和	-15430
有何重要性	-15431
气垫登陆艇	-15432
汽车工业的	-15433
经济的影响	-15434
自动化生产	-15435
设计和模拟	-15436
进行持续的	-15437
预测和控制	-15438
▁航空航天业	-15439
世界先进水平	-15440
具有显著优势	-15441
哪些关键技术	-15442
并进行必要的	-15443
新材料的应用	-15444
是必不可少的	-15445
航空公司需要	-15446
GLONASS	-15447
▁航空航天教育	-15448
从而减少碳排放	-15449
将人工智能技术	-15450
我们需要在发展	-15451
人类对宇宙的探索	-15452
加加林成为第一个	-15453
技术的发展和应用	-15454
航空航天科学研究	-15455
▁DeepMind	-15456
▁人工智能伦理问题	-15457
未来发展趋势是什么	-15458
▁人工智能在军事防务	-15459
人工智能的决策过程往往是黑箱操作	-15460
++	-15461
HT	-15462
pt	-15463
ru	-15464
▁刘	-15465
。>	-15466
三元	-15467
共振	-15468
军种	-15469
前列	-15470
动感	-15471
区和	-15472
双星	-15473
变成	-15474
失联	-15475
学和	-15476
尾部	-15477
广义	-15478
总成	-15479
拒绝	-15480
排查	-15481
星云	-15482
是对	-15483
柔和	-15484
短途	-15485
稳健	-15486
纯电	-15487
自驾	-15488
蒸气	-15489
角落	-15490
较弱	-15491
适时	-15492
重叠	-15493
ron	-15494
以识别	-15495
信号灯	-15496
刹车盘	-15497
加油机	-15498
和装备	-15499
在生产	-15500
威胁的	-15501
情绪和	-15502
栖息地	-15503
的燃料	-15504
的部分	-15505
研究员	-15506
空气的	-15507
要求和	-15508
该行业	-15509
这是由	-15510
▁有许多	-15511
一种新的	-15512
严重程度	-15513
主要区别	-15514
二战时期	-15515
会有哪些	-15516
减少人力	-15517
区域内的	-15518
在游戏中	-15519
增强学习	-15520
对消费者	-15521
很重要的	-15522
心理压力	-15523
技术应用	-15524
技术成熟	-15525
持续时间	-15526
方面有着	-15527
最新趋势	-15528
欧洲联盟	-15529
灾害救援	-15530
物体识别	-15531
经历了从	-15532
行驶路径	-15533
进行实验	-15534
遥感数据	-15535
长期来看	-15536
隐形技术	-15537
需要经过	-15538
▁商业航天	-15539
以帮助他们	-15540
和数据处理	-15541
型驱逐舰的	-15542
天体物理学	-15543
常用的方法	-15544
投资回报率	-15545
教育和宣传	-15546
机器人进行	-15547
沟通和协调	-15548
电子设备的	-15549
的重要力量	-15550
的重要性和	-15551
科研机构和	-15552
耐腐蚀性和	-15553
肌肉和骨骼	-15554
自动化流程	-15555
艺术创作中	-15556
药物研发和	-15557
设计和操作	-15558
进行深入的	-15559
预测和评估	-15560
飞行时间和	-15561
飞行路径和	-15562
▁轻量化材料	-15563
产业链上下游	-15564
优化能源使用	-15565
使用深度学习	-15566
在线教育平台	-15567
快门优先模式	-15568
无人机技术在	-15569
生成艺术作品	-15570
等可再生能源	-15571
通过多种方式	-15572
通过航天技术	-15573
▁机器学习算法	-15574
能够在短时间内	-15575
这包括但不限于	-15576
采取了哪些措施	-15577
防抱死刹车系统	-15578
领域有哪些应用	-15579
▁通过采取这些措施	-15580
人工智能的未来发展	-15581
人工智能在决策过程中	-15582
减少对环境的负面影响	-15583
39	-15584
At	-15585
▁海	-15586
▁直	-15587
▁超	-15588
上游	-15589
伊斯	-15590
全年	-15591
加氢	-15592
国六	-15593
处的	-15594
外空	-15595
它由	-15596
意志	-15597
挪威	-15598
放松	-15599
晶体	-15600
派遣	-15601
相位	-15602
眼镜	-15603
石墨	-15604
空投	-15605
肯定	-15606
董事	-15607
镍基	-15608
问责	-15609
集体	-15610
首艘	-15611
▁德国	-15612
事件对	-15613
动态和	-15614
在卫星	-15615
在围棋	-15616
执行了	-15617
有深入	-15618
来理解	-15619
欠拟合	-15620
欧盟的	-15621
甚至在	-15622
生成和	-15623
的组合	-15624
的行动	-15625
的难题	-15626
的高级	-15627
获取和	-15628
转化率	-15629
这促使	-15630
长航时	-15631
ding	-15632
三个阶段	-15633
不能完全	-15634
优化问题	-15635
作战中的	-15636
使得全球	-15637
共同解决	-15638
内饰设计	-15639
国防实力	-15640
导弹攻击	-15641
广泛使用	-15642
格洛纳斯	-15643
火控系统	-15644
物的排放	-15645
特定领域	-15646
用于评估	-15647
疲劳驾驶	-15648
社会伦理	-15649
科学探测	-15650
经济损失	-15651
自立自强	-15652
计划中的	-15653
资源有限	-15654
这些功能	-15655
这些新的	-15656
这得益于	-15657
通信链路	-15658
量子力学	-15659
隐私法规	-15660
飞行试验	-15661
-2000	-15662
▁数据质量	-15663
人工智能能	-15664
制定详细的	-15665
对环境影响	-15666
技术的使用	-15667
挑战和风险	-15668
效率和精度	-15669
标准和程序	-15670
特定领域的	-15671
的设计理念	-15672
目标检测和	-15673
科学研究的	-15674
航空和宇宙	-15675
责任和义务	-15676
还会有更多	-15677
这一领域的	-15678
进一步扩大	-15679
防御系统中	-15680
阿尔忒弥斯	-15681
Paddle	-15682
▁个性化学习	-15683
▁个性化教学	-15684
中国空间站的	-15685
人类首次登月	-15686
以下几种策略	-15687
对周围环境和	-15688
敌方防空系统	-15689
精确制导武器	-15690
这些伦理问题	-15691
这些数据对于	-15692
这是否意味着	-15693
进一步增强了	-15694
飞行员的训练	-15695
▁空中交通管制	-15696
保护生物多样性	-15697
可以帮助科学家	-15698
可以提供更好的	-15699
学生的学习效果	-15700
扮演了什么角色	-15701
的影响是巨大的	-15702
预测未来的趋势	-15703
▁人工智能对未来	-15704
处理和分析大量的	-15705
方面发挥重要作用	-15706
阿姆斯特朗和巴兹	-15707
也是一个重要的问题	-15708
人工智能可能会导致	-15709
航空航天技术的创新	-15710
以下是其中一些重要的	-15711
▁人工智能在自然语言处理	-15712
DM	-15713
一张	-15714
举行	-15715
军演	-15716
利伟	-15717
双发	-15718
变更	-15719
复兴	-15720
大批	-15721
实质	-15722
影视	-15723
搜集	-15724
无损	-15725
欧美	-15726
浪潮	-15727
电站	-15728
解锁	-15729
诈骗	-15730
账户	-15731
这会	-15732
选用	-15733
造价	-15734
链接	-15735
面板	-15736
093	-15737
90%	-15738
DNN	-15739
▁一些	-15740
为医生	-15741
云服务	-15742
你应该	-15743
健康的	-15744
催化剂	-15745
公正的	-15746
反辐射	-15747
可能与	-15748
困难的	-15749
威慑力	-15750
对整个	-15751
对车辆	-15752
木星的	-15753
杨利伟	-15754
演化和	-15755
的技能	-15756
的文本	-15757
紫外线	-15758
视角和	-15759
论坛上	-15760
设备或	-15761
话语权	-15762
运动的	-15763
都可能	-15764
防空和	-15765
食品和	-15766
高素质	-15767
ener	-15768
不仅限于	-15769
人们可以	-15770
仍能保持	-15771
何种影响	-15772
做出明智	-15773
减少库存	-15774
制造商的	-15775
可以评估	-15776
同时也会	-15777
同时提高	-15778
和飞行员	-15779
国防科技	-15780
在复杂的	-15781
地面控制	-15782
如何改善	-15783
对地观测	-15784
展示了其	-15785
市场推广	-15786
建立完善	-15787
情报信息	-15788
所使用的	-15789
技术改进	-15790
推荐算法	-15791
数据集上	-15792
模糊逻辑	-15793
比传统的	-15794
相关知识	-15795
相比有何	-15796
稳定飞行	-15797
航空产业	-15798
这一举措	-15799
这些成果	-15800
进行攻击	-15801
通过数据	-15802
重要地位	-15803
与机组成员	-15804
共同推动了	-15805
分别是什么	-15806
制定相关的	-15807
和合作伙伴	-15808
开发过程中	-15809
提供额外的	-15810
文中提到的	-15811
生理和心理	-15812
确保航天员	-15813
航母编队的	-15814
训练和推理	-15815
▁在航天器的	-15816
减少能源浪费	-15817
成功登陆月球	-15818
汽车的安全性	-15819
用户的需求和	-15820
的发展和应用	-15821
人们的生活质量	-15822
利用人工智能的	-15823
航空航天行业对	-15824
选择合适的材料	-15825
项目的顺利进行	-15826
▁人工智能在娱乐	-15827
▁请分享一些关于	-15828
提供个性化的健康	-15829
是一个复杂的过程	-15830
飞机起飞和降落时	-15831
▁在航空航天工业中	-15832
通过自动化和智能化的	-15833
人工智能的伦理道德问题	-15834
DB	-15835
aw	-15836
ke	-15837
两艘	-15838
制冷	-15839
加州	-15840
千瓦	-15841
半岛	-15842
即便	-15843
反对	-15844
可变	-15845
哈尔	-15846
幻影	-15847
开支	-15848
成品	-15849
日志	-15850
早在	-15851
明亮	-15852
此时	-15853
浮力	-15854
炸药	-15855
舵面	-15856
西部	-15857
麦卡	-15858
-37	-15859
180	-15860
▁空军	-15861
▁长安	-15862
专业化	-15863
为教师	-15864
仪器和	-15865
企业与	-15866
优点和	-15867
其中最	-15868
包括其	-15869
和增强	-15870
和销售	-15871
在应对	-15872
培养和	-15873
大功率	-15874
大面积	-15875
就开始	-15876
工具来	-15877
常态化	-15878
成本高	-15879
撞击坑	-15880
无法被	-15881
映射到	-15882
汽车与	-15883
法规的	-15884
滥用和	-15885
自主化	-15886
解决策	-15887
认知和	-15888
让员工	-15889
路线和	-15890
通用性	-15891
通过了	-15892
黑洞的	-15893
FPGA	-15894
▁MAX	-15895
▁在面对	-15896
为消费者	-15897
产品创新	-15898
具体需求	-15899
准确预测	-15900
动力装置	-15901
卫星数据	-15902
发展方面	-15903
向我提问	-15904
国际竞争	-15905
在地球上	-15906
外星文明	-15907
如何应用	-15908
得到有效	-15909
得到解决	-15910
承受能力	-15911
挑战者号	-15912
有所差异	-15913
气动特性	-15914
然后根据	-15915
环境信息	-15916
研究中心	-15917
维修工作	-15918
网络流量	-15919
能够达到	-15920
贫富差距	-15921
进行互动	-15922
金融欺诈	-15923
飞行模拟	-15924
▁嫦娥四号	-15925
▁汽车文化	-15926
主要是为了	-15927
使用过程中	-15928
医疗领域的	-15929
和平与稳定	-15930
在太空探索	-15931
在火星表面	-15932
太阳能发电	-15933
安全性方面	-15934
巨大的挑战	-15935
情况下都能	-15936
技能和经验	-15937
未来发展的	-15938
的发展前景	-15939
监控和管理	-15940
科技进步和	-15941
等自然灾害	-15942
系统是如何	-15943
维护和升级	-15944
自主学习和	-15945
这些问题的	-15946
预测和识别	-15947
飞机的结构	-15948
飞机的起降	-15949
▁空中出租车	-15950
个人信息保护	-15951
减少燃油消耗	-15952
我们需要考虑	-15953
是一个复杂且	-15954
等方面的问题	-15955
也被广泛应用于	-15956
人工智能在科研	-15957
以下几个方面的	-15958
大学和研究机构	-15959
数字化和智能化	-15960
生产效率和质量	-15961
的主要区别在于	-15962
航空航天法规与政策	-15963
▁人工智能在决策制定	-15964
人工智能在数据分析和预测	-15965
82	-15966
DN	-15967
kg	-15968
三年	-15969
两弹	-15970
交接	-15971
剧情	-15972
压气	-15973
增量	-15974
季节	-15975
对海	-15976
导电	-15977
己方	-15978
心态	-15979
我也	-15980
拆卸	-15981
按钮	-15982
日冕	-15983
时速	-15984
次的	-15985
画作	-15986
相连	-15987
系好	-15988
索赔	-15989
纬度	-15990
车路	-15991
都对	-15992
▁平衡	-15993
▁燃料	-15994
万公里	-15995
也就是	-15996
他认为	-15997
低延迟	-15998
先进性	-15999
卷积层	-16000
各方的	-16001
和冲突	-16002
和组织	-16003
大推力	-16004
奖学金	-16005
如采用	-16006
将具备	-16007
将增强	-16008
并据此	-16009
并结合	-16010
战略性	-16011
收藏家	-16012
智能地	-16013
核打击	-16014
每一步	-16015
热效率	-16016
等步骤	-16017
结合的	-16018
网联化	-16019
角色的	-16020
讨论和	-16021
责任的	-16022
隐私和	-16023
不良影响	-16024
事故现场	-16025
从而保护	-16026
你可以在	-16027
依赖关系	-16028
发射成功	-16029
和数据集	-16030
国际象棋	-16031
奖励函数	-16032
安全检查	-16033
市场分析	-16034
建设方面	-16035
患者数据	-16036
您有什么	-16037
接受程度	-16038
控制理论	-16039
提供技术	-16040
新兴技术	-16041
沟通能力	-16042
潜在应用	-16043
特点包括	-16044
生物医学	-16045
疾病风险	-16046
相关企业	-16047
确保产品	-16048
科学探索	-16049
科技巨头	-16050
空中支援	-16051
符合国际	-16052
能够利用	-16053
自动翻译	-16054
解决策略	-16055
许多公司	-16056
语音翻译	-16057
贡献力量	-16058
运动轨迹	-16059
这些突破	-16060
通过参与	-16061
通过实时	-16062
道德困境	-16063
钛合金和	-16064
非常复杂	-16065
驱动系统	-16066
▁数据处理	-16067
个性化定制	-16068
促进了全球	-16069
做出决策时	-16070
发现隐藏的	-16071
各种可能的	-16072
实施过程中	-16073
并采取措施	-16074
性和有效性	-16075
技术和材料	-16076
技术的结合	-16077
提供了关键	-16078
提供更准确	-16079
模仿人类的	-16080
模式和关联	-16081
激光武器的	-16082
的安全漏洞	-16083
通信系统的	-16084
采取措施来	-16085
在生产过程中	-16086
垂直发射系统	-16087
快速反应能力	-16088
持续作战能力	-16089
来说非常重要	-16090
根据评估结果	-16091
的高质量发展	-16092
以下是一些具体的	-16093
是一个复杂的问题	-16094
深度学习在图像识别	-16095
随着环保意识的增强	-16096
随着私人航天公司的	-16097
做出更明智的投资决策	-16098
新一代人工智能发展规划	-16099
航空航天技术的进步使得	-16100
sc	-16101
▁=	-16102
一周	-16103
一组	-16104
下游	-16105
侧滑	-16106
先锋	-16107
分层	-16108
创立	-16109
前端	-16110
加载	-16111
升高	-16112
发的	-16113
古老	-16114
听觉	-16115
圆形	-16116
局的	-16117
工匠	-16118
开通	-16119
当然	-16120
或过	-16121
抛射	-16122
掩护	-16123
更广	-16124
机炮	-16125
气门	-16126
玉兔	-16127
用作	-16128
监听	-16129
空基	-16130
罕见	-16131
草案	-16132
躲避	-16133
车间	-16134
迎角	-16135
透镜	-16136
那时	-16137
都要	-16138
难关	-16139
250	-16140
AST	-16141
all	-16142
fer	-16143
net	-16144
uri	-16145
▁政策	-16146
▁新的	-16147
亿年前	-16148
体积和	-16149
便捷和	-16150
保有量	-16151
候选人	-16152
全面和	-16153
原创性	-16154
发射前	-16155
和团队	-16156
将极大	-16157
已知的	-16158
并作出	-16159
并开始	-16160
并遵循	-16161
新产品	-16162
来指导	-16163
查尔斯	-16164
植物的	-16165
歧视和	-16166
灵活地	-16167
然后将	-16168
牛顿的	-16169
的比例	-16170
知名的	-16171
社区的	-16172
等优势	-16173
臭氧层	-16174
行人和	-16175
设备在	-16176
不断扩大	-16177
以及改进	-16178
传统方法	-16179
作为全球	-16180
使得汽车	-16181
先进材料	-16182
判断能力	-16183
制导技术	-16184
动力性能	-16185
合法权益	-16186
国防工业	-16187
土壤湿度	-16188
导航精度	-16189
市场拓展	-16190
帮助军事	-16191
开辟新的	-16192
影响力和	-16193
性能方面	-16194
战斗力的	-16195
指导意见	-16196
提高生产	-16197
故事情节	-16198
效果如何	-16199
显著成果	-16200
智能电网	-16201
现代社会	-16202
生成器和	-16203
用于处理	-16204
私人公司	-16205
线性代数	-16206
结构化的	-16207
维护工作	-16208
能够提升	-16209
能量回收	-16210
详细设计	-16211
还配备了	-16212
这一领域	-16213
这个挑战	-16214
这些进展	-16215
防御措施	-16216
互联网连接	-16217
以确保飞行	-16218
具有强大的	-16219
另一个重要	-16220
和国际合作	-16221
如何考虑到	-16222
学习过程中	-16223
对飞行员的	-16224
将继续推动	-16225
市场的增长	-16226
常见的应用	-16227
很好的例子	-16228
是航空航天	-16229
燃烧效率和	-16230
的基本原则	-16231
的安全保障	-16232
等各个环节	-16233
繁琐的任务	-16234
返回地球的	-16235
这意味着在	-16236
高温环境下	-16237
ropout	-16238
▁神舟十五号	-16239
人工智能确实	-16240
创造就业机会	-16241
喷气式飞机的	-16242
在航天领域的	-16243
将进一步推动	-16244
提供了大量的	-16245
提高决策效率	-16246
无人机可以在	-16247
航空航天电子	-16248
还有很多其他	-16249
▁航空航天政策	-16250
▁通过以上步骤	-16251
个性化治疗方案	-16252
太空探索的成本	-16253
模型的决策过程	-16254
汽车的燃油效率	-16255
科学技术的进步	-16256
第一颗人造卫星	-16257
中发挥了关键作用	-16258
中国载人航天工程	-16259
以下是一些可能的	-16260
航空器和航天器的	-16261
自然语言处理技术来	-16262
航空航天科学的应用	-16263
如何利用人工智能技术	-16264
人工智能在自动驾驶汽车	-16265
可以帮助我们更好地理解和	-16266
▁希望以上信息对您有所帮助	-16267
NG	-16268
一星	-16269
了其	-16270
作风	-16271
加哥	-16272
势力	-16273
声速	-16274
多年	-16275
学等	-16276
宁德	-16277
将从	-16278
广度	-16279
或在	-16280
手中	-16281
打通	-16282
抓取	-16283
攻坚	-16284
新区	-16285
更生	-16286
期限	-16287
歧义	-16288
比重	-16289
画像	-16290
病患	-16291
粮食	-16292
累积	-16293
纵向	-16294
统筹	-16295
质的	-16296
超车	-16297
通勤	-16298
阻拦	-16299
马尔	-16300
ESP	-16301
enc	-16302
▁西安	-16303
一些人	-16304
不断的	-16305
与环境	-16306
以承受	-16307
作战和	-16308
停车场	-16309
其决策	-16310
劳动法	-16311
北京市	-16312
卡斯帕	-16313
反垄断	-16314
变化等	-16315
和价值	-16316
干扰或	-16317
所谓的	-16318
新一轮	-16319
来适应	-16320
求职者	-16321
相似性	-16322
芝加哥	-16323
较长的	-16324
面临了	-16325
1957	-16326
三个方面	-16327
为投资者	-16328
他们可能	-16329
以便能够	-16330
使得军事	-16331
全面发展	-16332
匿名化和	-16333
安全监控	-16334
定价策略	-16335
应用范围	-16336
感知技术	-16337
战略优势	-16338
教育培训	-16339
数据集中	-16340
标注数据	-16341
梯度消失	-16342
燃油系统	-16343
电子邮件	-16344
研发团队	-16345
科技人才	-16346
结构优化	-16347
航空器时	-16348
轨道设计	-16349
轰炸机和	-16350
这些目标	-16351
非法获取	-16352
▁1956	-16353
▁航空工业	-16354
▁高超音速	-16355
不平等问题	-16356
从而推动了	-16357
先进的安全	-16358
决策过程的	-16359
卡斯帕罗夫	-16360
存储和传输	-16361
常用的材料	-16362
应该由谁来	-16363
是一个不断	-16364
有人驾驶的	-16365
目的是什么	-16366
职业生涯中	-16367
舰载战斗机	-16368
艺术创作的	-16369
计算能力的	-16370
通过先进的	-16371
▁使用合适的	-16372
以及如何通过	-16373
具有重大影响	-16374
取得了巨大的	-16375
可以帮助人们	-16376
太空探索任务	-16377
微重力环境下	-16378
效率和可靠性	-16379
模拟人类智能	-16380
生成人类语言	-16381
经济社会发展	-16382
递归神经网络	-16383
▁有哪些常见的	-16384
▁这些只是一些	-16385
新能源汽车产业	-16386
机器人和自动化	-16387
科学技术的发展	-16388
人工智能系统需要	-16389
以适应不断变化的	-16390
提取有价值的信息	-16391
的影响主要体现在	-16392
设计与制造过程中	-16393
▁在航空航天领域的	-16394
个人隐私和数据安全	-16395
作为一位航空摄影师	-16396
方面取得了显著进展	-16397
人工智能可以通过智能	-16398
人工智能技术可以通过	-16399
机器学习和大数据分析	-16400
▁人工智能在自动驾驶汽车	-16401
的重要性主要体现在以下几个方面	-16402
49	-16403
▁朱	-16404
▁热	-16405
不如	-16406
主持	-16407
伟达	-16408
全力	-16409
反思	-16410
多人	-16411
多架	-16412
宽体	-16413
服装	-16414
流水	-16415
答疑	-16416
自力	-16417
落入	-16418
蒙皮	-16419
言论	-16420
进近	-16421
退化	-16422
飛行	-16423
首颗	-16424
50%	-16425
CAM	-16426
▁进入	-16427
下进行	-16428
仪表盘	-16429
低密度	-16430
加密和	-16431
和发射	-16432
和错误	-16433
回地球	-16434
如卫星	-16435
并计划	-16436
应立即	-16437
情况的	-16438
或挑战	-16439
描述了	-16440
来构建	-16441
法国的	-16442
的成果	-16443
英伟达	-16444
远高于	-16445
风险等	-16446
飞船在	-16447
▁以色列	-16448
▁高精度	-16449
世界一流	-16450
为飞行员	-16451
产生威胁	-16452
以及建立	-16453
以及采用	-16454
偏见问题	-16455
创新成果	-16456
和测试集	-16457
噪声污染	-16458
地面部队	-16459
大大提升	-16460
家居设备	-16461
对航天器	-16462
尽管如此	-16463
巨大贡献	-16464
技术包括	-16465
故障排除	-16466
无法直接	-16467
旨在推动	-16468
更加方便	-16469
检测系统	-16470
生产线的	-16471
的工作量	-16472
相关产业	-16473
积极应对	-16474
空间应用	-16475
策略包括	-16476
紧急刹车	-16477
能够独立	-16478
自力更生	-16479
许多传统	-16480
语言学习	-16481
身心健康	-16482
这些物质	-16483
重大成就	-16484
长期居住	-16485
项目中的	-16486
▁人机交互	-16487
▁材料科学	-16488
▁模型评估	-16489
▁研究人员	-16490
为环境保护	-16491
从而实现对	-16492
具有挑战性	-16493
反舰导弹的	-16494
大量数据的	-16495
学习和掌握	-16496
实际操作中	-16497
技术的改进	-16498
提供更高的	-16499
月球表面的	-16500
物联网技术	-16501
特点和优势	-16502
的未来发展	-16503
的重要步骤	-16504
空中出租车	-16505
管理和保护	-16506
精度和效率	-16507
能源的依赖	-16508
自动化控制	-16509
致力于推动	-16510
▁教育和培训	-16511
可以从大量的	-16512
市场的竞争力	-16513
并提供更好的	-16514
猎鹰重型火箭	-16515
设计中的应用	-16516
载人航天飞行	-16517
重型运载火箭	-16518
隐私保护措施	-16519
也面临一些挑战	-16520
使用人工智能来	-16521
可能会有所不同	-16522
自动驾驶技术中	-16523
提高能源利用效率	-16524
氮氧化物和颗粒物	-16525
科学家和工程师们	-16526
采取了一系列措施	-16527
▁使用人工智能进行	-16528
▁能否提供一些关于	-16529
人工智能在语音识别	-16530
可以帮助我们更好地	-16531
商业模式和竞争策略	-16532
确保人工智能的发展	-16533
领域取得了重大突破	-16534
可以帮助我们更好地理解	-16535
▁人工智能在自动驾驶车辆	-16536
MD	-16537
MO	-16538
Me	-16539
TP	-16540
▁8	-16541
▁v	-16542
人数	-16543
光速	-16544
印尼	-16545
口味	-16546
基洛	-16547
家属	-16548
对准	-16549
投票	-16550
担当	-16551
接轨	-16552
敌军	-16553
救灾	-16554
氢氧	-16555
湖泊	-16556
满载	-16557
狭窄	-16558
申报	-16559
留住	-16560
盆地	-16561
直线	-16562
简要	-16563
绝缘	-16564
舆论	-16565
荷兰	-16566
触及	-16567
迈向	-16568
阻尼	-16569
飞翼	-16570
高铁	-16571
Rob	-16572
ies	-16573
ple	-16574
▁机器	-16575
不仅要	-16576
不必要	-16577
仍处于	-16578
会排放	-16579
会遇到	-16580
传递给	-16581
但随着	-16582
位置的	-16583
信息战	-16584
内进行	-16585
动植物	-16586
包容性	-16587
参数的	-16588
发展出	-16589
和模拟	-16590
在当时	-16591
定位置	-16592
并防止	-16593
建立的	-16594
技术时	-16595
星系的	-16596
是航空	-16597
未来在	-16598
机制和	-16599
每小时	-16600
气象学	-16601
深厚的	-16602
演练中	-16603
激光束	-16604
生存和	-16605
电磁场	-16606
的直接	-16607
直观的	-16608
知名度	-16609
空气中	-16610
精神的	-16611
航天人	-16612
词嵌入	-16613
都应该	-16614
高价值	-16615
▁宇航员	-16616
中的关键	-16617
他们使用	-16618
供应商的	-16619
克服这些	-16620
其在国际	-16621
发射方式	-16622
名航天员	-16623
命中精度	-16624
垃圾处理	-16625
如碳纤维	-16626
实习机会	-16627
应考虑到	-16628
往往难以	-16629
探索未知	-16630
教育体系	-16631
教育平台	-16632
文化遗产	-16633
方面取得	-16634
智能体的	-16635
气象观测	-16636
硬件设备	-16637
确实存在	-16638
算法模型	-16639
解释性和	-16640
车身结构	-16641
轨道上的	-16642
通过改变	-16643
通过设计	-16644
防空体系	-16645
▁2016	-16646
亚太地区的	-16647
使机器能够	-16648
保持冷静和	-16649
出现故障时	-16650
和发展趋势	-16651
响应速度和	-16652
培训和发展	-16653
太空任务的	-16654
市场占有率	-16655
挑战和困难	-16656
提高游戏的	-16657
政策的实施	-16658
最新技术和	-16659
有针对性的	-16660
极大提高了	-16661
标准和要求	-16662
检查飞机的	-16663
特点是什么	-16664
的技术优势	-16665
的数据保护	-16666
的高分辨率	-16667
科技创新的	-16668
突破和创新	-16669
能力和进度	-16670
能够帮助您	-16671
预测和分析	-16672
以适应不同的	-16673
燃油经济性和	-16674
的效率和精度	-16675
航空航天知识	-16676
许多航空公司	-16677
设计与模拟中	-16678
过程中的安全	-16679
这样可以提高	-16680
▁航空航天系统	-16681
可以更好地理解	-16682
固体火箭发动机	-16683
模型的预测结果	-16684
深度学习等技术	-16685
温室气体的排放	-16686
的安全和可靠性	-16687
行人和其他车辆	-16688
进入太空的人类	-16689
进行调整和优化	-16690
▁航空航天设备的	-16691
主要包括以下几种	-16692
人工智能技术可以	-16693
国际航空运输协会	-16694
飞机的设计和制造	-16695
人工智能在智能家居	-16696
航空航天科技的进步	-16697
中国航天科技集团公司	-16698
可重复使用的火箭技术	-16699
人工智能技术的快速发展	-16700
航空航天技术的发展推动了	-16701
TS	-16702
co	-16703
两年	-16704
之路	-16705
产销	-16706
伯格	-16707
台海	-16708
向上	-16709
否则	-16710
喷出	-16711
图书	-16712
坠机	-16713
完备	-16714
定居	-16715
干燥	-16716
年起	-16717
战后	-16718
战备	-16719
政务	-16720
物和	-16721
的水	-16722
盟军	-16723
相成	-16724
相辅	-16725
碳化	-16726
票价	-16727
纪元	-16728
螺丝	-16729
超高	-16730
跟进	-16731
较好	-16732
造型	-16733
110	-16734
Air	-16735
▁开发	-16736
▁缺乏	-16737
▁训练	-16738
下来的	-16739
但可以	-16740
印度洋	-16741
和深化	-16742
和要求	-16743
在当前	-16744
在确保	-16745
在科研	-16746
型人才	-16747
大学和	-16748
安装了	-16749
并给出	-16750
应用了	-16751
方法的	-16752
汽车和	-16753
的责任	-16754
的频率	-16755
的高度	-16756
相媲美	-16757
稳定地	-16758
等重大	-16759
航空港	-16760
被发现	-16761
预测或	-16762
4000	-16763
IDIA	-16764
esla	-16765
loud	-16766
ress	-16767
▁The	-16768
一定程度	-16769
也改变了	-16770
交易策略	-16771
交流合作	-16772
公开透明	-16773
其他行业	-16774
决策问题	-16775
北斗二号	-16776
印象深刻	-16777
反无人机	-16778
可以发现	-16779
各国政府	-16780
和机器人	-16781
安全要求	-16782
工业领域	-16783
广角镜头	-16784
性的作用	-16785
持续进行	-16786
有着密切	-16787
民营企业	-16788
法律制度	-16789
火星上的	-16790
版权保护	-16791
特定群体	-16792
生命起源	-16793
的发展中	-16794
的影响和	-16795
的范围内	-16796
目标信息	-16797
相辅相成	-16798
研发中心	-16799
研发周期	-16800
紧急出口	-16801
经济状况	-16802
能够推动	-16803
艺术体验	-16804
设计人员	-16805
运动规律	-16806
这一阶段	-16807
进行模拟	-16808
重要人物	-16809
隐私政策	-16810
飞机进行	-16811
▁特征提取	-16812
原因是什么	-16813
和肌肉萎缩	-16814
地球表面的	-16815
带来了挑战	-16816
心血管系统	-16817
方面进行了	-16818
是如何帮助	-16819
电磁环境下	-16820
的一些方法	-16821
的工作压力	-16822
的未来趋势	-16823
科技发展的	-16824
自适应学习	-16825
识别准确率	-16826
质量和性能	-16827
还需要具备	-16828
随着计算机	-16829
风险和挑战	-16830
▁以下是一些	-16831
发生的可能性	-16832
可能会对社会	-16833
将会更加广泛	-16834
态势感知能力	-16835
是全球最大的	-16836
混合动力系统	-16837
艺术和创造性	-16838
进行风险管理	-16839
世界冠军李世石	-16840
传统燃料的依赖	-16841
国际空间站开始	-16842
患者的健康状况	-16843
我们的生活质量	-16844
提供更个性化的	-16845
美国宇航员尼尔	-16846
航空工业的发展	-16847
解释其决策过程	-16848
对航空航天领域的	-16849
更高效的发动机和	-16850
▁中国航天科技集团	-16851
航空航天科学在国防	-16852
航空航天科学的研究	-16853
1)	-16854
1:	-16855
38	-16856
53	-16857
iv	-16858
▁小	-16859
与之	-16860
且在	-16861
中转	-16862
代价	-16863
先验	-16864
分歧	-16865
友军	-16866
反之	-16867
发动	-16868
士气	-16869
总量	-16870
悟空	-16871
方针	-16872
无意	-16873
机头	-16874
溶胶	-16875
漫游	-16876
理由	-16877
电量	-16878
繁忙	-16879
群众	-16880
耀斑	-16881
自信	-16882
萨德	-16883
词性	-16884
路段	-16885
较短	-16886
金额	-16887
链条	-16888
院所	-16889
难忘	-16890
静电	-16891
预留	-16892
act	-16893
▁保护	-16894
一体的	-16895
偏好和	-16896
制动力	-16897
协调和	-16898
参与过	-16899
反隐身	-16900
可能有	-16901
和方向	-16902
如美国	-16903
实现与	-16904
对火星	-16905
年实现	-16906
抗辐射	-16907
拦截和	-16908
挑战赛	-16909
效率低	-16910
来平衡	-16911
来自动	-16912
的分布	-16913
的能量	-16914
的驾驶	-16915
的高速	-16916
航空和	-16917
过程和	-16918
项目在	-16919
-117	-16920
人造地球	-16921
人际交往	-16922
使用的是	-16923
公司合作	-16924
减轻教师	-16925
可以同时	-16926
可能通过	-16927
增材制造	-16928
对无人机	-16929
广泛关注	-16930
成另一种	-16931
技术转让	-16932
投入大量	-16933
敌方雷达	-16934
旅行时间	-16935
某些群体	-16936
游戏难度	-16937
生产能力	-16938
用户界面	-16939
的高性能	-16940
统计分析	-16941
维护需求	-16942
耐用性和	-16943
能够应对	-16944
艺术家和	-16945
财务管理	-16946
赛车运动	-16947
这方面的	-16948
通常用于	-16949
通过合作	-16950
通过整合	-16951
通过识别	-16952
采取以下	-16953
风险识别	-16954
鲁棒性和	-16955
▁你是如何	-16956
▁长征七号	-16957
不仅增强了	-16958
个人信息的	-16959
会产生大量	-16960
具有更强的	-16961
取得了许多	-16962
和优化算法	-16963
品牌影响力	-16964
在交通领域	-16965
市场的需求	-16966
常见的方法	-16967
技术创新与	-16968
是一种用于	-16969
燃料消耗和	-16970
电推进系统	-16971
电磁弹射器	-16972
目标的实现	-16973
目标识别和	-16974
空气质量和	-16975
航天发射场	-16976
获得更好的	-16977
设计和改进	-16978
设计和构建	-16979
识别和处理	-16980
进行相应的	-16981
飞机发动机	-16982
▁汽车行业的	-16983
促进国际合作	-16984
具有深远影响	-16985
创作艺术作品	-16986
地位和影响力	-16987
多个国家合作	-16988
实现自动驾驶	-16989
帮助我们理解	-16990
并做出相应的	-16991
提供智能化的	-16992
提供更精准的	-16993
正在研究如何	-16994
精度和可靠性	-16995
过程中产生的	-16996
进行实时监测	-16997
雷达反射面积	-16998
▁使用人工智能	-16999
可以提供实时的	-17000
各个领域的应用	-17001
在复杂环境下的	-17002
材料和制造技术	-17003
系统的工作原理	-17004
icrosoft	-17005
▁人工智能是否会	-17006
事故发生的可能性	-17007
是一个非常重要的	-17008
▁未来的航空航天技术	-17009
▁人工智能在环保领域的	-17010
航空航天技术的不断进步	-17011
中的作用主要体现在以下几个方面	-17012
CE	-17013
HF	-17014
▁云	-17015
》。	-17016
一切	-17017
中航	-17018
临界	-17019
促销	-17020
凸显	-17021
分级	-17022
变为	-17023
吉林	-17024
在北	-17025
失踪	-17026
扩建	-17027
消息	-17028
灰尘	-17029
的双	-17030
装箱	-17031
试驾	-17032
贫困	-17033
跨境	-17034
转折	-17035
还与	-17036
雷诺	-17037
青睐	-17038
ain	-17039
▁上汽	-17040
▁福特	-17041
▁虽然	-17042
与救援	-17043
为基础	-17044
为应对	-17045
做准备	-17046
内完成	-17047
合理性	-17048
后视镜	-17049
和质量	-17050
失业率	-17051
对太空	-17052
彰显了	-17053
或方法	-17054
探测仪	-17055
操纵性	-17056
时需要	-17057
最终的	-17058
机身的	-17059
来说是	-17060
检测出	-17061
气溶胶	-17062
测量和	-17063
温度等	-17064
然后在	-17065
研制中	-17066
第一种	-17067
第一艘	-17068
设备上	-17069
避免对	-17070
arth	-17071
▁接下来	-17072
为了适应	-17073
什么水平	-17074
从而确保	-17075
以便他们	-17076
内容创作	-17077
决定是否	-17078
历史性的	-17079
反潜能力	-17080
可以保证	-17081
可能加剧	-17082
和复杂的	-17083
商业航班	-17084
地质勘探	-17085
基本构型	-17086
多元化和	-17087
宇航员会	-17088
必须考虑	-17089
成本高昂	-17090
技术人才	-17091
技术如何	-17092
投资研发	-17093
投资者的	-17094
推动行业	-17095
提高他们	-17096
提高道路	-17097
政治格局	-17098
旨在实现	-17099
智能算法	-17100
最大射程	-17101
最新动态	-17102
月球南极	-17103
有严格的	-17104
有控制的	-17105
机翼设计	-17106
法律纠纷	-17107
特别是与	-17108
特殊教育	-17109
的可行性	-17110
监测设备	-17111
航空历史	-17112
行业应用	-17113
评估方法	-17114
通过减少	-17115
需要设计	-17116
预测设备	-17117
▁随机森林	-17118
主要应用于	-17119
事件的发生	-17120
使用了哪些	-17121
全球化进程	-17122
制定明确的	-17123
动力系统和	-17124
反坦克导弹	-17125
和预测分析	-17126
回收再利用	-17127
学习和实践	-17128
实施严格的	-17129
技术发展的	-17130
提出了新的	-17131
数据预处理	-17132
月球科研站	-17133
法规与政策	-17134
测试和优化	-17135
现代化建设	-17136
疾病的风险	-17137
的关键步骤	-17138
直接影响了	-17139
神舟十一号	-17140
能源效率和	-17141
航空工业的	-17142
这种技术在	-17143
进行必要的	-17144
量子计算机	-17145
雷达系统和	-17146
以下几个阶段	-17147
制定了一系列	-17148
更具挑战性和	-17149
核心技术之一	-17150
短期记忆网络	-17151
遵循以下步骤	-17152
▁你能介绍一下	-17153
人工智能在农业	-17154
图像和语音识别	-17155
工作岗位的消失	-17156
开发者和使用者	-17157
能够理解和解释	-17158
超音速巡航能力	-17159
面临的挑战包括	-17160
▁数据隐私和安全	-17161
人工智能可以用来	-17162
从而降低燃油消耗	-17163
可以减少人为错误	-17164
我们可以实时监测	-17165
日常生活中的应用	-17166
是人工智能领域的	-17167
人工智能在军事防务	-17168
处于良好的工作状态	-17169
处理和分析大量数据	-17170
▁航空航天工程的基础	-17171
人工智能可以用于开发	-17172
KF	-17173
、3	-17174
。“	-17175
也应	-17176
二维	-17177
低压	-17178
公务	-17179
关岛	-17180
前期	-17181
反推	-17182
后者	-17183
多星	-17184
年和	-17185
总线	-17186
总裁	-17187
恐慌	-17188
战法	-17189
木材	-17190
滑动	-17191
联络	-17192
螺栓	-17193
边条	-17194
降维	-17195
驾乘	-17196
3.5	-17197
ess	-17198
▁作者	-17199
▁这种	-17200
主要归	-17201
保持与	-17202
制定更	-17203
发射器	-17204
孤独感	-17205
并按照	-17206
应由谁	-17207
换电站	-17208
替代品	-17209
有利的	-17210
生命和	-17211
电推进	-17212
电气化	-17213
着陆场	-17214
等内容	-17215
观察和	-17216
软件的	-17217
输入和	-17218
这对其	-17219
连接器	-17220
部队在	-17221
预期的	-17222
AIoT	-17223
▁GPS	-17224
▁透明度	-17225
不公平的	-17226
不断努力	-17227
与飞行员	-17228
严格控制	-17229
仍然需要	-17230
优势包括	-17231
力学性能	-17232
和无人机	-17233
国产航母	-17234
大气层中	-17235
天气信息	-17236
安全保障	-17237
安全培训	-17238
实时传输	-17239
实时获取	-17240
实际运用	-17241
对宇航员	-17242
寻求专业	-17243
影响深远	-17244
必须遵循	-17245
我很乐意	-17246
战略平衡	-17247
抗腐蚀性	-17248
推动社会	-17249
提高资源	-17250
新的阶段	-17251
旅行体验	-17252
服务模式	-17253
游戏开发	-17254
燃料系统	-17255
相关行业	-17256
职业规划	-17257
训练样本	-17258
辐射水平	-17259
运营模式	-17260
这导致了	-17261
都离不开	-17262
专业知识和	-17263
你可能需要	-17264
俄罗斯海军	-17265
具有较强的	-17266
医生和患者	-17267
反导系统的	-17268
可能会减少	-17269
和技术试验	-17270
天气预报和	-17271
安全和效率	-17272
对人类生活	-17273
展示了哪些	-17274
工业机器人	-17275
数据的质量	-17276
极其重要的	-17277
检查和测试	-17278
民用无人机	-17279
的安全培训	-17280
的法律问题	-17281
研究和探索	-17282
科研人员的	-17283
设计和功能	-17284
资源的分配	-17285
转化为电能	-17286
飞机的速度	-17287
它们可以用于	-17288
建立合作关系	-17289
提高运输效率	-17290
改进飞机设计	-17291
的形成和演化	-17292
的影响有哪些	-17293
踏上月球的人	-17294
预测设备故障	-17295
飞机的安全性	-17296
▁在飞行过程中	-17297
人工智能可以使	-17298
大数据和云计算	-17299
学生的学习进度	-17300
将会越来越广泛	-17301
提高了生产效率	-17302
数据和行为模式	-17303
氢燃料电池汽车	-17304
航空航天企业的	-17305
道德和社会影响	-17306
韦伯太空望远镜	-17307
以下几个方面进行	-17308
人工智能在医疗保健	-17309
▁TensorFlow	-17310
深度学习和机器学习技术	-17311
34	-17312
AH	-17313
▁天	-17314
不错	-17315
之地	-17316
云的	-17317
伟大	-17318
估算	-17319
全景	-17320
努利	-17321
备件	-17322
奠基	-17323
威尔	-17324
并向	-17325
幸存	-17326
心和	-17327
急剧	-17328
战斧	-17329
无偏	-17330
日落	-17331
植保	-17332
海湾	-17333
疑虑	-17334
监护	-17335
磨削	-17336
融化	-17337
触摸	-17338
轮换	-17339
金服	-17340
降雨	-17341
高精	-17342
AIM	-17343
iss	-17344
und	-17345
▁AG	-17346
▁设备	-17347
▁设定	-17348
下一个	-17349
与制造	-17350
东南亚	-17351
亚轨道	-17352
会逐渐	-17353
凭借其	-17354
则可以	-17355
发展到	-17356
发电机	-17357
和人才	-17358
和协调	-17359
喜欢的	-17360
复杂而	-17361
多语种	-17362
威胁时	-17363
对话和	-17364
层面的	-17365
工人的	-17366
已达到	-17367
年发射	-17368
并寻找	-17369
成像仪	-17370
成本低	-17371
找到了	-17372
拦截弹	-17373
振动和	-17374
推断出	-17375
推理和	-17376
整合到	-17377
旅客的	-17378
更小的	-17379
来满足	-17380
来验证	-17381
正逐渐	-17382
海平面	-17383
的含义	-17384
的意义	-17385
的火箭	-17386
的零件	-17387
目前还	-17388
背景的	-17389
设立了	-17390
负责人	-17391
跨文化	-17392
革命性	-17393
颜色和	-17394
高光谱	-17395
黑盒子	-17396
-200	-17397
业的发展	-17398
两弹一星	-17399
严格要求	-17400
也很重要	-17401
减少人为	-17402
减少噪音	-17403
则是通过	-17404
前景十分	-17405
噪音水平	-17406
如此重要	-17407
安全漏洞	-17408
打击效果	-17409
技术交流	-17410
技能培训	-17411
投资机会	-17412
提供更具	-17413
收入来源	-17414
文学作品	-17415
方面表现	-17416
替代方案	-17417
月球样品	-17418
月球登陆	-17419
清晰度和	-17420
的精确度	-17421
的航天器	-17422
确保系统	-17423
科学问题	-17424
第一岛链	-17425
脑机接口	-17426
自我优化	-17427
节能环保	-17428
蚂蚁金服	-17429
计划进行	-17430
资源进行	-17431
达到多少	-17432
还规定了	-17433
这个系统	-17434
这些新型	-17435
这体现了	-17436
选择哪种	-17437
通过共享	-17438
造成破坏	-17439
金属合金	-17440
静止轨道	-17441
预警能力	-17442
食物和水	-17443
高能粒子	-17444
Image	-17445
▁俄罗斯在	-17446
▁航天技术	-17447
以适应不同	-17448
再入大气层	-17449
匿名化处理	-17450
可以为学生	-17451
可解释性和	-17452
和技术水平	-17453
复杂的交通	-17454
如卫星通信	-17455
建立和完善	-17456
提高决策的	-17457
标准和法规	-17458
泛化能力和	-17459
消费者权益	-17460
的优势在于	-17461
的飞行性能	-17462
符合人类的	-17463
自己的行为	-17464
计算机程序	-17465
让更多的人	-17466
进一步增强	-17467
进入大气层	-17468
进行分析和	-17469
速度和高度	-17470
ations	-17471
▁自动化交易	-17472
中国载人航天	-17473
之间找到平衡	-17474
交通管理系统	-17475
合成孔径雷达	-17476
和成本的降低	-17477
喷气发动机的	-17478
多层神经网络	-17479
应急处理能力	-17480
我们需要关注	-17481
涉及到大量的	-17482
起到关键作用	-17483
进行精确打击	-17484
随着商业航天	-17485
▁人工智能能否	-17486
▁卷积神经网络	-17487
▁能否讨论一下	-17488
伦理和社会问题	-17489
可能出现的风险	-17490
安全和隐私保护	-17491
提高人工智能的	-17492
机器学习工程师	-17493
汽车的安全性能	-17494
维护和修复工作	-17495
能够更好地适应	-17496
陶瓷基复合材料	-17497
人工智能的过程中	-17498
安全性和隐私保护	-17499
未来航空航天领域	-17500
▁能否详细介绍一下	-17501
中的道德和伦理问题	-17502
理解和处理人类语言	-17503
起到了积极的推动作用	-17504
52	-17505
Bo	-17506
Hz	-17507
PT	-17508
du	-17509
mb	-17510
一艘	-17511
上方	-17512
偏航	-17513
八号	-17514
分成	-17515
利率	-17516
副翼	-17517
加利	-17518
大洋	-17519
将来	-17520
工序	-17521
征求	-17522
投射	-17523
摆脱	-17524
无数	-17525
概述	-17526
歌曲	-17527
渔业	-17528
湿滑	-17529
痕迹	-17530
绘图	-17531
美感	-17532
联想	-17533
肺炎	-17534
过剩	-17535
近平	-17536
送达	-17537
途中	-17538
造福	-17539
▁Le	-17540
▁法国	-17541
不得不	-17542
也非常	-17543
产品中	-17544
作用下	-17545
可能更	-17546
合作中	-17547
和开发	-17548
和欧洲	-17549
和能源	-17550
哈尔滨	-17551
在制造	-17552
培养了	-17553
如何从	-17554
如图像	-17555
如果在	-17556
并具备	-17557
战略中	-17558
敏感的	-17559
有足够	-17560
来驱动	-17561
洞察力	-17562
火星等	-17563
的体验	-17564
的反应	-17565
的探测	-17566
监测等	-17567
确定其	-17568
等环境	-17569
等都是	-17570
能源和	-17571
虽然在	-17572
跨部门	-17573
迈出了	-17574
严格执行	-17575
中的发展	-17576
主动雷达	-17577
传动系统	-17578
传统汽车	-17579
信息传递	-17580
具有高度	-17581
军事卫星	-17582
准备时间	-17583
利用卫星	-17584
参考资料	-17585
发射平台	-17586
可以提前	-17587
太空军事	-17588
实时通信	-17589
巡航速度	-17590
快速部署	-17591
您的汽车	-17592
提供各种	-17593
日益严重	-17594
气象信息	-17595
法律咨询	-17596
法律手段	-17597
灵活调整	-17598
现代化和	-17599
电子工程	-17600
突出贡献	-17601
紧急医疗	-17602
级核潜艇	-17603
能力提升	-17604
能够减少	-17605
自动泊车	-17606
表现不佳	-17607
转换效率	-17608
还提供了	-17609
这个模型	-17610
重新定义	-17611
light	-17612
但同时也会	-17613
具体表现在	-17614
医疗数据和	-17615
和数据科学	-17616
复杂多变的	-17617
大数据技术	-17618
太空环境中	-17619
存储和使用	-17620
快速变化的	-17621
技术的融合	-17622
政策和措施	-17623
教育与培训	-17624
数量的增加	-17625
方面有许多	-17626
服务提供商	-17627
游戏的难度	-17628
物理和化学	-17629
的决策能力	-17630
的重要指标	-17631
的重要问题	-17632
确保技术的	-17633
科学家能够	-17634
虚拟实验室	-17635
观测和研究	-17636
规划和执行	-17637
设备的故障	-17638
评估和管理	-17639
这是一个由	-17640
采用了多种	-17641
飞行动力学	-17642
▁供应链管理	-17643
使用机器学习	-17644
对社会和经济	-17645
帮助科研人员	-17646
我们可以实现	-17647
数据处理能力	-17648
深度强化学习	-17649
稳定控制系统	-17650
航空航天器材	-17651
请随时告诉我	-17652
载人航天精神	-17653
这不仅提升了	-17654
通过卫星技术	-17655
需要定期进行	-17656
主要有以下几个	-17657
优化供应链管理	-17658
及时发现和处理	-17659
可以帮助工程师	-17660
技术的发展使得	-17661
是一个重要问题	-17662
最大限度地减少	-17663
的关键因素之一	-17664
航空航天工业是	-17665
节省教师的时间	-17666
▁无人驾驶飞行器	-17667
取得了显著的成果	-17668
商业和金融领域的	-17669
国际空间站的建设	-17670
航空航天技术中的	-17671
航空航天科研项目	-17672
语音识别的准确性	-17673
▁航空航天材料科学	-17674
人工智能也可以通过	-17675
人工智能的发展确实	-17676
人工智能系统的安全性	-17677
航空航天制造业的发展	-17678
人工智能可以根据用户的	-17679
人工智能可以通过学习和	-17680
航空航天技术的不断发展	-17681
1,	-17682
74	-17683
TC	-17684
▁e	-17685
九号	-17686
仅有	-17687
停飞	-17688
先后	-17689
先行	-17690
全向	-17691
冰雪	-17692
减重	-17693
利于	-17694
动手	-17695
喷口	-17696
增值	-17697
壳体	-17698
复工	-17699
将以	-17700
小步	-17701
年将	-17702
手续	-17703
无关	-17704
核弹	-17705
海空	-17706
狭小	-17707
猛禽	-17708
生素	-17709
置于	-17710
质检	-17711
配方	-17712
防盗	-17713
麦克	-17714
Pro	-17715
▁Sh	-17716
▁de	-17717
▁开展	-17718
▁文本	-17719
▁空客	-17720
▁网络	-17721
▁苏联	-17722
世纪中	-17723
为飞机	-17724
交互性	-17725
从原始	-17726
使人类	-17727
信用卡	-17728
减少因	-17729
前瞻性	-17730
加利福	-17731
命中率	-17732
和接收	-17733
和流程	-17734
和部署	-17735
地使用	-17736
墨子号	-17737
将重点	-17738
工作室	-17739
工厂的	-17740
平方米	-17741
心理和	-17742
救援和	-17743
最初的	-17744
期间的	-17745
来研究	-17746
的潜在	-17747
罗伯特	-17748
装置的	-17749
象征着	-17750
通信等	-17751
高级别	-17752
▁4.《	-17753
▁数据集	-17754
人才引进	-17755
保持一致	-17756
公众利益	-17757
内部空间	-17758
创业公司	-17759
合理使用	-17760
处理速度	-17761
宁德时代	-17762
对接机构	-17763
市场走势	-17764
心理咨询	-17765
推力矢量	-17766
推动绿色	-17767
提高教育	-17768
数值模拟	-17769
最合适的	-17770
最有效的	-17771
气候模型	-17772
游戏测试	-17773
相对较小	-17774
确保你的	-17775
空间天气	-17776
简单来说	-17777
管理风险	-17778
精益生产	-17779
续航时间	-17780
维护地区	-17781
自我意识	-17782
语言理解	-17783
资源共享	-17784
飞行姿态	-17785
▁1997	-17786
▁根据您的	-17787
加利福尼亚	-17788
发射任务中	-17789
可以识别出	-17790
和应用领域	-17791
和智能网联	-17792
噪音和振动	-17793
处理和存储	-17794
它可以分析	-17795
小时的在线	-17796
感知和决策	-17797
技术方面的	-17798
探索太空的	-17799
是如何利用	-17800
机器人系统	-17801
消费者购买	-17802
的发展空间	-17803
的基础设施	-17804
的综合应用	-17805
系统的决策	-17806
航空航天在	-17807
▁在自动驾驶	-17808
可以提高效率	-17809
大规模的数据	-17810
对环境和人类	-17811
提高农作物的	-17812
改善空气质量	-17813
的研究和创新	-17814
能够快速响应	-17815
虚拟现实体验	-17816
采取预防措施	-17817
严格的安全标准	-17818
人工智能对未来	-17819
分析大量的数据	-17820
并根据这些信息	-17821
机器学习是一种	-17822
玩家的游戏体验	-17823
通过分析患者的	-17824
道德和伦理标准	-17825
飞机和宇宙飞船	-17826
▁人工智能在科研	-17827
中扮演着重要角色	-17828
为了解决这些问题	-17829
可持续的方向发展	-17830
导航和控制系统的	-17831
我们可以更准确地	-17832
人工智能的安全问题	-17833
可重复使用的航天器	-17834
提高飞机的燃油效率	-17835
▁人工智能在环境保护	-17836
制定个性化的治疗方案	-17837
起到了至关重要的作用	-17838
▁请介绍一下人工智能在	-17839
以减少对化石燃料的依赖	-17840
能够理解和处理人类语言	-17841
人工智能的发展也可能带来	-17842
人工智能的道德和伦理问题	-17843
"?	-17844
DL	-17845
PI	-17846
QN	-17847
Wh	-17848
fi	-17849
一站	-17850
不久	-17851
二十	-17852
其它	-17853
农机	-17854
切削	-17855
功于	-17856
单纯	-17857
原料	-17858
在该	-17859
均值	-17860
奇瑞	-17861
审视	-17862
延续	-17863
抗压	-17864
挑衅	-17865
无到	-17866
朗普	-17867
泰国	-17868
测速	-17869
消化	-17870
消毒	-17871
灾情	-17872
现金	-17873
紧固	-17874
纠缠	-17875
网膜	-17876
美苏	-17877
职工	-17878
胶水	-17879
航油	-17880
蓬勃	-17881
详述	-17882
近似	-17883
预约	-17884
RCS	-17885
Res	-17886
ube	-17887
▁by	-17888
▁预防	-17889
不产生	-17890
人力和	-17891
保密性	-17892
和高速	-17893
增加对	-17894
多样的	-17895
导航等	-17896
年代的	-17897
并可能	-17898
或创新	-17899
接受了	-17900
是保证	-17901
榴弹炮	-17902
特朗普	-17903
生命体	-17904
的传播	-17905
的射程	-17906
的特殊	-17907
的科技	-17908
的雷达	-17909
破坏性	-17910
等情况	-17911
算法中	-17912
视网膜	-17913
违反了	-17914
都能够	-17915
随时随	-17916
音乐的	-17917
)**:	-17918
上实现了	-17919
上的性能	-17920
专业领域	-17921
中小企业	-17922
中提到了	-17923
交通堵塞	-17924
仿真技术	-17925
全产业链	-17926
具体案例	-17927
具体要求	-17928
内容推荐	-17929
决策系统	-17930
准确无误	-17931
在设计中	-17932
复杂地形	-17933
太阳爆发	-17934
奖励机制	-17935
小时在线	-17936
手术操作	-17937
技术开发	-17938
控制措施	-17939
提高了其	-17940
敌方防空	-17941
新兴产业	-17942
时产生的	-17943
更加深入	-17944
有效防止	-17945
理想选择	-17946
生产基地	-17947
的新时代	-17948
稳定性的	-17949
空中威胁	-17950
管理策略	-17951
航班调度	-17952
连拍模式	-17953
通过提升	-17954
道德伦理	-17955
都在积极	-17956
销售数据	-17957
锁定目标	-17958
需要定期	-17959
预计未来	-17960
earch	-17961
pilot	-17962
▁人脸识别	-17963
▁在过去的	-17964
与人类进行	-17965
与神经网络	-17966
偏远地区的	-17967
关键零部件	-17968
其决策过程	-17969
分析和挖掘	-17970
创作过程中	-17971
制定和完善	-17972
如深度学习	-17973
学习并改进	-17974
并为未来的	-17975
怎样的作用	-17976
提供更安全	-17977
时需要考虑	-17978
是一个非常	-17979
智能汽车的	-17980
机器学习等	-17981
环境友好性	-17982
环境条件下	-17983
的基本步骤	-17984
的技术基础	-17985
的重要方向	-17986
空间站建造	-17987
续航能力和	-17988
货运飞船的	-17989
通过大量的	-17990
▁人工智能和	-17991
▁聊天机器人	-17992
一些伦理问题	-17993
其可能带来的	-17994
可以考虑使用	-17995
性能上有哪些	-17996
提高交通效率	-17997
火箭发动机和	-17998
系统的性能和	-17999
通过技术创新	-18000
陆基中段反导	-18001
飞行器在各种	-18002
tention	-18003
▁Watson	-18004
中的应用广泛且	-18005
人工智能的行为	-18006
可以帮助飞行员	-18007
情报收集和分析	-18008
技术的应用使得	-18009
航天科技的发展	-18010
航空航天科技在	-18011
计算能力的提升	-18012
许多国家和地区	-18013
诊断和治疗建议	-18014
▁在自然语言处理	-18015
收集到的数据进行	-18016
收集和分析大量的	-18017
是航空航天领域的	-18018
的安全和顺利进行	-18019
航空航天安全问题	-18020
航空航天技术对于	-18021
通过深度学习算法	-18022
创造更多的就业机会	-18023
航空航天领域的研究	-18024
volutional	-18025
利用人工智能技术进行	-18026
这是人类历史上第一次	-18027
人工智能的道德和法律问题	-18028
人工智能还可以通过大数据分析	-18029
人工智能可以根据每个学生的学习	-18030
OC	-18031
PP	-18032
SH	-18033
UC	-18034
上层	-18035
代谢	-18036
任意	-18037
关心	-18038
刑事	-18039
剪辑	-18040
动量	-18041
医药	-18042
多级	-18043
已在	-18044
年后	-18045
播种	-18046
改为	-18047
时序	-18048
普惠	-18049
机电	-18050
杂质	-18051
来纳	-18052
沈阳	-18053
油价	-18054
电科	-18055
益处	-18056
短路	-18057
离轨	-18058
稳固	-18059
联酋	-18060
那里	-18061
鉴赏	-18062
锈钢	-18063
陷入	-18064
首选	-18065
高地	-18066
30%	-18067
CEO	-18068
▁Re	-18069
▁谷歌	-18070
中获得	-18071
习近平	-18072
了道路	-18073
交通等	-18074
传输到	-18075
伯努利	-18076
但这也	-18077
使企业	-18078
可接受	-18079
和日本	-18080
和防御	-18081
国内的	-18082
多语言	-18083
将产生	-18084
小卫星	-18085
年成功	-18086
应包括	-18087
引人注	-18088
拓展了	-18089
新工艺	-18090
是汽车	-18091
湿度和	-18092
火箭筒	-18093
登陆舰	-18094
的先进	-18095
的投入	-18096
科研中	-18097
稳定器	-18098
耐磨性	-18099
自由度	-18100
轨道器	-18101
转向灯	-18102
进展和	-18103
麦卡锡	-18104
龙飞船	-18105
cess	-18106
tern	-18107
▁con	-18108
不再需要	-18109
不同语言	-18110
为了保护	-18111
也在增加	-18112
也是关键	-18113
关键时刻	-18114
加工技术	-18115
医学数据	-18116
医疗图像	-18117
卡罗来纳	-18118
及时了解	-18119
及时进行	-18120
发达国家	-18121
可行性和	-18122
合法性和	-18123
同时保护	-18124
壮丽景象	-18125
提高行驶	-18126
更加生动	-18127
更精准地	-18128
核心角色	-18129
模拟实验	-18130
科研投入	-18131
空天飞机	-18132
表面温度	-18133
让机器人	-18134
设计用于	-18135
这些偏见	-18136
这些决策	-18137
这将使得	-18138
通过这种	-18139
马丁公司	-18140
▁为了减少	-18141
▁模型选择	-18142
严格的法规	-18143
人体工程学	-18144
企业和个人	-18145
可以在没有	-18146
各国之间的	-18147
各种不同的	-18148
在某些方面	-18149
提供了基础	-18150
改进和创新	-18151
数学和物理	-18152
无人飞行器	-18153
有显著提升	-18154
正常运行和	-18155
潜在的应用	-18156
的飞行技术	-18157
看到更多的	-18158
突破和进展	-18159
精细化管理	-18160
系好安全带	-18161
系统的效率	-18162
舰载机起降	-18163
解决了哪些	-18164
[...]
